{"curr": 1712, "stellungen": 7842, "verhalten": 6630, "iated": 7381, "Perhaps": 7106, "merk": 2058, "ten": 147, "Zentral": 4799, "provide": 1409, "hingen": 6482, "geber": 5860, "const": 5908, "told": 6588, "gy": 2273, "interpret": 4382, "ol": 163, "erteilen": 4461, "design": 4896, "Volks": 6328, "zstan": 7442, "ath": 5743, "Dar": 2431, "erkennt": 6959, "ose": 1049, "distr": 3641, "Mir": 3629, "belie": 1064, "iglich": 3683, "Angesichts": 5967, "tellung": 2920, "rule": 5510, "J": 34, "aff": 1485, "make": 946, "strict": 4925, "iele": 2365, "cri": 6811, "iation": 5763, "Ind": 3709, "open": 3029, "entsprechende": 3414, "2124": 7245, "democratic": 3828, "eingeleitet": 6936, "fir": 3862, "competen": 4905, "record": 6910, "rü": 1570, "Fraktionen": 5421, "danger": 2315, "tabled": 3258, "weil": 1307, "möglich": 1626, "lack": 1828, "represents": 7987, "threat": 7181, "ator": 3156, "conne": 3933, "ages": 6457, "Lassen": 2130, "dellen": 6598, "allocated": 6301, "audit": 6153, "creating": 5012, "räs": 375, "ro": 108, "Ti": 2191, "alloc": 4222, "unterbreit": 4941, "curring": 7974, "erhält": 7459, "using": 4884, "entschieden": 2864, "East": 2266, "eindeut": 2093, "010": 5685, "a": 53, "größere": 6999, "Er": 363, "unseren": 3190, "hope": 1185, "Finn": 6836, "On": 2269, "impossible": 5881, "beträcht": 3674, "applies": 5623, "spät": 5926, "avail": 2419, "abgestimmt": 6624, "regarding": 2391, "erung": 3896, "port": 238, "krit": 3135, "reicht": 3009, "Leider": 4995, "ivil": 2905, "degre": 4488, "erklär": 2855, "ablish": 1399, "hält": 2492, "ische": 414, "Jon": 2965, "gehör": 1821, "opo": 6508, "lles": 4494, "provided": 2815, "erinn": 3898, "käm": 1905, "stances": 3562, "competitiveness": 5069, "ze": 299, "Abgeordneten": 1889, "päischen": 460, "air": 1519, "mir": 1095, "happen": 2322, "lish": 1133, "prü": 1550, "idea": 2398, "Subventionen": 5658, "atast": 1136, "07": 1854, "Ölt": 7444, "Dokument": 3277, "fach": 1899, "Konsult": 4964, "Erfahrungen": 5638, "kel": 1401, "former": 6728, "Diskussionen": 5565, "anche": 5278, "Recht": 1230, "ativen": 2459, "legislative": 2929, "available": 2716, "committees": 6022, "quest": 623, "played": 6978, "konnten": 4955, "ultur": 2792, "unerläß": 7182, "yssen": 4454, "Fischerei": 7142, "Kriterien": 4686, "brauch": 835, "Europ": 2151, "Schreyer": 5400, "group": 1630, "utzt": 7901, "Natürlich": 3077, "ale": 2463, "Straße": 6933, "schwierig": 5609, "igten": 1982, "Wege": 5370, "ko": 1903, "lust": 5771, "29": 5687, "yl": 1812, "wart": 3659, "Themen": 3702, "kt": 205, "regel": 2090, "fen": 390, "Binnenmarktes": 4648, "zlich": 3893, "Court": 3276, "jikistan": 7383, "Berlin": 7721, "requirement": 6883, "todays": 7960, "meinem": 3464, "you": 450, "like": 448, "ichts": 2218, "unserem": 3749, "behandlung": 6579, "Schiffe": 2700, "Generalstaatsanwaltschaft": 7198, "luß": 1569, "transition": 5548, "Ab": 421, "zeigen": 5387, "ästin": 2429, "incor": 3975, "säm": 5791, "budsman": 5024, "rä": 319, "Ergeb": 2567, "ungsverfahren": 5391, "änden": 4909, "Why": 4021, "time": 659, "ück": 595, "simple": 6517, "enlargement": 4100, "countr": 812, "Dän": 3285, "nisse": 1946, "darauf": 1376, "pite": 3879, "received": 4075, "shipo": 6707, "ters": 4875, "indust": 1139, "Unregelmäßigkeiten": 7190, "vorzulegen": 7067, "strengthen": 2945, "Lebanon": 5500, "Schiffen": 6896, "enforced": 7017, "bessere": 4610, "too": 1075, "dut": 6467, "win": 5258, "Aussage": 7741, "relate": 6823, "hör": 586, "quant": 5970, "dispar": 3527, "forth": 5879, "Türkei": 4083, "dies": 191, "ielen": 1929, "finde": 6747, "document": 1875, "supply": 5583, "enten": 6580, "documents": 3089, "central": 2732, "iden": 692, "allow": 2383, "allen": 1330, "gra": 2740, "highl": 3553, "men": 235, "keinerlei": 7218, "Questions": 6150, "Weise": 3031, "guarante": 2405, "grundlage": 6938, "Aussch": 1129, "ders": 3672, "health": 7576, "wicht": 754, "effekt": 4595, "ügen": 5803, "anken": 3903, "Since": 3121, "ltig": 4948, "ihil": 793, "ists": 2551, "zusätz": 6619, "problem": 944, "nat": 1096, "quick": 3186, "freedom": 2308, "stocks": 7095, "Hindern": 6893, "Wel": 3030, "hel": 1733, "marked": 6953, "manner": 5605, "Turk": 7032, "Mein": 1238, "Lin": 6432, "änder": 911, "gewiss": 6148, "ittee": 1003, "exception": 6286, "population": 6336, "ermut": 5806, "post": 4226, "X": 48, "effective": 1782, "irst": 739, "yn": 3890, "moral": 6016, "covered": 5053, "gemäß": 3540, "Israel": 1028, "teile": 4203, "Geschäft": 3260, "Grund": 1359, "Krieg": 7296, "chtigkeit": 4255, "wegen": 2871, "Hav": 6426, "diff": 988, "grundsätz": 3608, "ierende": 4959, "check": 6021, "wait": 3394, "tradition": 5639, "Sa": 4129, "seiner": 2526, "ihre": 851, "kur": 1756, "granting": 7023, "genere": 5895, "uly": 3889, "neg": 4512, "ream": 2462, "eines": 939, "Many": 4782, "eval": 6840, "led": 1285, "whose": 6831, "scha": 285, "Gemeinschaft": 1271, "gere": 1419, "ingend": 2867, "Präsidentschaft": 2298, "properly": 3415, "gekommen": 4200, "Auditors": 5141, "ctive": 870, "sitting": 4279, "natürlich": 2253, "two": 1193, "nahme": 1631, "uses": 7624, "employed": 6106, "Regierungskon": 3279, "gige": 5758, "Ta": 1277, "Verhalten": 3503, "Um": 624, "status": 4642, "verfolgen": 7588, "krimin": 5768, "atic": 1817, "senden": 6666, "compar": 7691, "il": 171, "wachsen": 5507, "solution": 4967, "sicht": 498, "Einwander": 5138, "anies": 2036, "Schaden": 4729, "early": 5437, "dip": 5754, "role": 1762, "called": 5222, "accoun": 1142, "achen": 7631, "discuss": 1171, "several": 4086, "ält": 6533, "something": 1234, "kind": 2201, "strategischen": 7948, "Mö": 1562, "truth": 7635, "ities": 725, "rag": 1582, "Rahmen": 1439, "everyone": 7943, "Tur": 3123, "schaffen": 1663, "anwaltschaft": 3105, "subsidies": 6187, "stud": 6574, "flags": 6982, "necessary": 1325, "agt": 2297, "sustain": 6333, "trollen": 2475, "lage": 1247, "context": 3026, "ht": 288, "ises": 6554, "Hence": 7284, "üsse": 5264, "Aber": 1601, "Ro": 2340, "altung": 3219, "structural": 2416, "ific": 760, "cting": 6646, "Macht": 7306, "unden": 2860, "prosec": 6649, "Dänemar": 3436, "Krimin": 6956, "Bemü": 2824, "ren": 1973, "lamentar": 6003, "Naturkatastrophen": 5578, "ächt": 4457, "nam": 5777, "dadurch": 3697, "iately": 6486, "jetz": 5765, "loy": 1010, "petr": 6627, "POL": 7311, "bedauere": 7102, "Vitorino": 2832, "was": 314, "suggest": 3095, "seeking": 6862, "sichtig": 7790, "training": 1999, "begrüße": 2819, "Vertra": 7656, "because": 1074, "Befug": 6688, "ap": 295, "leben": 3483, "Pres": 364, "lieben": 5942, "regulations": 2063, "kay": 2524, "t": 72, "hinder": 3977, "den": 124, "schwier": 3331, "als": 359, "when": 858, "Gese": 3447, "Its": 7285, "risk": 1611, "0": 12, "Med": 4123, "itte": 730, "for": 135, "emphasis": 4375, "ts": 297, "kam": 4153, "letztendlich": 7940, "def": 5871, "bezüglich": 4480, "r": 70, "question": 882, "Bestand": 4631, "presidency": 4946, "ally": 485, "ckheer": 3354, "Kouchner": 6375, "Barnier": 4685, "services": 4034, "erweise": 3897, "gemä": 4580, "folg": 2006, "darum": 2908, "waiting": 7042, "ussels": 4885, "All": 1259, "decl": 6061, "Gefahrgut": 4660, "terin": 5337, "kings": 7806, "thly": 6552, "rent": 5785, "Syr": 2319, "ücht": 6534, "Auch": 1882, "behandelt": 4853, "Verbrauch": 2891, "Heraus": 5575, "appropri": 2318, "lict": 4562, "business": 2019, "foc": 3377, "Auskunft": 7740, "ürf": 7611, "ali": 7503, "möglichkeiten": 4252, "unbedingt": 3315, "Entlastung": 2396, "griff": 3352, "lea": 3913, "beauftragten": 3831, "Syrien": 2715, "Stür": 3196, "round": 5294, "läne": 6773, "Woche": 6206, "Mos": 7304, "abandoned": 7584, "Lage": 2511, "ated": 626, "denn": 1114, "amen": 1329, "resolution": 1891, "unterstützen": 2418, "oil": 2848, "paar": 7801, "meinen": 2354, "cher": 3001, "Nor": 2725, "Second": 2579, "ffe": 642, "allgemein": 6658, "seem": 2095, "stärker": 3405, "Ausbau": 7739, "seit": 1730, "öffentlichen": 2946, "beyond": 5298, "Regelung": 3231, "sets": 6610, "September": 2834, "lätz": 2680, "ared": 2047, "höch": 6920, "remote": 7500, "ahn": 4250, "rail": 5892, "almost": 5839, "klare": 7092, "Wird": 5978, "Regel": 1215, "Person": 2070, "ject": 665, "europäischen": 852, "zentrale": 4657, "vorgelegten": 6695, "wichtigste": 7938, "new": 806, "lim": 1347, "kurz": 2180, "27": 7242, "wiederhol": 6095, "demokrat": 3184, "Gul": 7278, "gän": 3132, "place": 1270, "know": 1005, "nen": 275, "Demokrat": 5062, "urn": 2042, "Rechte": 5359, "Pa": 6438, "aussprechen": 5365, "anwes": 4845, "bürger": 6379, "deal": 1689, "ankers": 5426, "Lebensmittel": 1515, "bin": 1221, "62": 5168, "Wie": 994, "wend": 755, "erörtert": 7128, "loo": 3718, "hab": 5234, "atives": 2037, "ither": 2523, "ries": 3881, "trägen": 4606, "Konsens": 7805, "bauen": 7956, "je": 392, "suspended": 7202, "meine": 1017, "bs": 3857, "Minutes": 4612, "Entschließung": 3782, "forestry": 4355, "betont": 4958, "Ich": 293, "Libanon": 7173, "sowie": 1309, "Gerichtshof": 5631, "Dänemark": 4095, "Beziehungen": 3607, "politik": 1833, "Bürokrat": 5172, "Minister": 1745, "Außen": 4341, "Mitarbeiter": 4730, "France": 3370, "practical": 3083, "nöt": 6505, "Government": 4745, "debate": 1029, "?": 24, "visory": 7890, "gemäße": 5655, "aspect": 2464, "gegenwärtig": 7086, "bod": 3295, "Nahen": 3266, "spreche": 6096, "xibilität": 7436, "fragte": 7813, "benachteil": 7692, "of": 117, "atten": 1576, "kommenden": 4585, "diesem": 525, "ausen": 4486, "zug": 1076, "ement": 834, "Projekte": 4667, "crimin": 1742, "geleis": 4202, "burden": 7038, "haps": 3936, "stric": 7730, "ve": 143, "verpflichtet": 5161, "genü": 3336, "ation": 158, "iert": 605, "entire": 3324, "Rats": 4974, "Anfang": 6700, "Now": 5726, "Wettbewerbs": 1119, "asylum": 3278, "farm": 6113, "consequences": 5626, "etwas": 1352, "promis": 7610, "member": 3138, "happens": 6131, "gründlich": 5601, "reiche": 2915, "change": 1243, "übertrieben": 7707, "achie": 1584, "Welche": 3598, "effect": 1471, "Beschluß": 6126, "happened": 6199, "Afr": 6405, "Gefahr": 2302, "raeli": 4509, "Berichterstatterin": 3076, "endlich": 4232, "Un": 221, "gute": 2635, "written": 7431, "Besorgnis": 6200, "Emp": 2708, "laufen": 3253, "rece": 2757, "adequate": 4093, "supervision": 4065, "glichkeiten": 3765, "living": 7647, "location": 7701, "rapporteur": 1479, "esch": 1008, "Entscheid": 1935, "highlight": 5099, "dar": 394, "bet": 531, "hindern": 3206, "zieren": 7439, "cept": 976, "usses": 2246, "Verwalt": 1659, "gebeten": 7533, "cooperate": 7132, "assessment": 6275, "griculture": 5136, "ail": 1518, "state": 847, "Dublin": 5154, "einverstanden": 5159, "verfolg": 5891, "directly": 5066, "unktions": 6801, "besser": 2120, "ichte": 2211, "Ausnahmen": 7737, "ln": 2083, "Meine": 3630, "n": 66, "einzu": 2655, "Resol": 5073, "punkt": 1491, "million": 2847, "ived": 3038, "Posit": 6214, "hlen": 3049, "istle": 5901, "Schroed": 2236, "Mad": 2025, "ways": 1943, "sollten": 993, "beste": 981, "protection": 2500, "ton": 3467, "consensus": 6388, "commitments": 5542, "Berichterst": 1406, "istan": 2147, "remind": 3779, "Staatsanwaltschaft": 4077, "dient": 3858, "ettering": 5920, "dacht": 5340, "against": 1512, "yal": 7437, "Verbrechen": 6673, "applied": 5490, "weist": 3682, "besten": 4258, "erc": 3895, "Weih": 6690, "wenige": 6762, "teuer": 7544, "demokratische": 7034, "Umwelt": 1837, "Gü": 3446, "Member": 517, "ety": 1052, "devoted": 6599, "mote": 4557, "aid": 695, "unities": 3666, "CE": 3843, "dence": 5877, "Wi": 2625, "Uns": 2889, "coast": 4245, "glück": 7371, "itor": 1283, "encouraging": 7049, "ada": 5208, "recht": 1127, "S": 43, "ij": 5238, "end": 246, "These": 1990, "sive": 4167, "Seix": 6060, "kehren": 5905, "Wirtschafts": 3074, "freien": 4586, "proceed": 3497, "understanding": 7993, "guten": 5456, "inquir": 7469, "king": 569, "demand": 2234, "Please": 7211, "willing": 6684, "mid": 6500, "ellen": 3860, "Absicht": 3199, "Rassismus": 7212, "Langen": 3628, "but": 503, "partner": 3979, "ufig": 6182, "loss": 3762, "solidarity": 2833, "fähigkeit": 4374, "Golf": 7009, "Am": 1855, "schle": 5324, "ruck": 3554, "intend": 5045, "inform": 4842, "äd": 2647, "Miß": 3289, "Ansatz": 3959, "feasible": 7719, "permit": 7729, "responsible": 2309, "local": 3357, "Atl": 6135, "Legisl": 6278, "incorpor": 5123, "möglicherweise": 7964, "yers": 6531, "racy": 3696, "no": 154, "pens": 5782, "atern": 6565, "Zukunft": 2696, "partic": 890, "ont": 2858, "ähnlich": 5647, "deren": 2368, "lüssel": 5017, "alone": 6573, "ft": 215, "Gemäß": 7886, "deli": 3917, "einge": 1866, "D": 28, "small": 3597, "zä": 3892, "gelassen": 6028, "Rea": 4228, "Antworten": 6932, "Presidents": 7762, "gehend": 4861, "Umwel": 7814, "ons": 2531, "ively": 5952, "code": 2560, "gelungen": 5429, "creation": 5011, "bere": 666, "Zahlen": 6207, "ll": 128, "x": 76, "Wettbewerbspolitik": 1509, "conom": 828, "zeichnen": 6913, "disch": 2442, "held": 3489, "reduce": 5593, "rischen": 7406, "gesichert": 7676, "celon": 7630, "EQ": 4114, "invol": 1784, "Programme": 2062, "ispiel": 1370, "ones": 5817, "light": 3301, "habe": 1086, "opt": 5367, "ling": 5242, "Hafenstaaten": 7101, "Maßnahme": 6304, "Sehr": 5450, "einver": 4863, "late": 5772, "broad": 5217, "welcome": 1948, "Dro": 6413, "discussions": 4023, "Einbeziehung": 6394, "Parlaments": 1549, "Ableh": 7764, "auf": 195, "disciplinary": 5481, "Independent": 6178, "pre": 518, "Bra": 6406, "außer": 1916, "char": 3901, "ument": 724, "Entschließ": 1551, "notwendig": 2422, "her": 428, "east": 6473, "continue": 1845, "Rech": 781, "dges": 6469, "Sind": 7319, "tering": 5894, "excellent": 3274, "consolid": 7616, "sset": 7417, "Vertrau": 2229, "geboten": 7534, "Wy": 7333, "ca": 5219, "Ausgaben": 6740, "nun": 1327, "icy": 6625, "Hal": 6422, "States": 684, "angewandt": 7232, "Eh": 6414, "beten": 5847, "put": 1018, "Mitgefühl": 5406, "Disziplin": 4698, "sal": 7413, "succeed": 6210, "diese": 511, "ign": 940, "feststellen": 4613, "relative": 5452, "Surely": 7323, "Develop": 5465, "ichertem": 6356, "15": 2334, "fail": 3191, "giv": 5231, "größte": 5574, "wrong": 4174, "positiven": 6879, "ähn": 4458, "sever": 3170, "unsten": 6561, "gab": 3461, "kleinen": 5114, "ats": 1161, "par": 767, "Will": 6453, "erfahren": 5266, "significant": 4082, "Nun": 2969, "z": 78, "kult": 5240, "vessels": 4310, "selbst": 1467, "usal": 6654, "irre": 7617, "genügend": 4702, "parties": 4567, "sc": 1223, "mly": 5244, "cross": 5751, "Aktivitäten": 7167, "Diskussion": 4354, "Konferenz": 4963, "schl": 6614, "achieving": 5519, "Presidency": 2106, "ger": 425, "spirit": 4719, "während": 2698, "selves": 2165, "grö": 1925, "nevertheless": 6644, "Thursday": 6390, "Gebieten": 6132, "tific": 5255, "economic": 1323, "gesetzt": 1462, "Erwä": 5989, "Sitzungen": 7927, "lastung": 2249, "erkennen": 4345, "court": 6079, "mass": 4161, "asp": 6584, "ween": 900, "ees": 4432, "schlä": 4501, "richt": 996, "stets": 5096, "women": 6334, "reaching": 5571, "96": 5689, "blem": 645, "ministers": 7026, "be": 109, "Treat": 1954, "alität": 3011, "mü": 388, "Fehlen": 6155, "opin": 1623, "House": 1605, "beha": 5848, "feed": 4544, "feat": 7716, "barkeit": 6074, "Nie": 5196, "anwalt": 7481, "gemeinschaftlichen": 4668, "Having": 6160, "sur": 3652, "fire": 6476, "leading": 6212, "thinking": 5272, "wä": 491, "Entwicklung": 1362, "immediately": 7133, "ktionen": 1696, "tha": 6551, "mo": 434, "Europol": 2663, "Trotz": 6377, "bewerber": 6027, "!": 4, "wonder": 4452, "China": 5070, "Schutz": 3040, "jeder": 2907, "gen": 155, "Artikel": 1896, "Skand": 7175, "ob": 399, "y": 77, "genehm": 5896, "ord": 349, "nationale": 4961, "provisions": 4081, "O": 39, "die": 122, "Thyssen": 4531, "nukleare": 7006, "Schengen": 3364, "kennen": 5995, "ökolog": 4838, "dafür": 1077, "committee": 1881, "Bei": 2668, "ner": 845, "spaper": 7641, "effor": 2065, "itation": 7488, "wurden": 1358, "from": 555, "perce": 7728, "cted": 1296, "haupt": 4360, "öff": 1494, "entwicklung": 5857, "Zahl": 2440, "verb": 3492, "employees": 5496, "Tob": 2192, "Hafen": 4335, "bei": 447, "seits": 3919, "grund": 1874, "Les": 6433, "itisation": 5828, "forget": 6609, "deple": 5312, "Sicherheitsber": 7070, "prä": 2642, "Kosten": 4986, "dlich": 3456, "bring": 2478, "fte": 3130, "Einzel": 6775, "minimum": 5451, "relativen": 7832, "seinen": 2034, "fulfil": 6119, "sec": 3918, "Verantwortungs": 6874, "rechtliche": 6103, "ausgeht": 7671, "linge": 6006, "geordne": 892, "oren": 6568, "Fortsch": 3427, "uct": 5257, "wealth": 6606, "pts": 4823, "ans": 589, "At": 1480, "2000": 1258, "H": 32, "laws": 6858, "person": 2566, "AB": 4760, "ches": 4463, "arr": 3012, "count": 6790, "Ar": 402, "Amer": 4761, "tation": 7420, "Unser": 4891, "sechs": 5103, "llschaften": 3487, "Ide": 3851, "task": 3142, "although": 4191, "Regionen": 1233, "distrib": 4717, "Unregelmäß": 5931, "Prinzip": 3807, "liches": 4877, "Gemeinden": 5630, "Beschäftigungs": 3800, "Dok": 3110, "unanimous": 7225, "ande": 3155, "Zusammenhang": 1715, "wes": 1242, "atische": 5824, "amp": 1581, "offen": 1867, "Des": 1363, "considerable": 4291, "Bürger": 1342, "chter": 4464, "Reform": 1106, "Nutzen": 4786, "wü": 7427, "arbeit": 699, "unabhäng": 3005, "genug": 7600, "red": 1072, "correct": 4351, "Präsidentin": 2163, "beru": 7613, "British": 4089, "Brü": 4108, "talking": 4632, "enormous": 6217, "major": 1700, "Übergang": 4981, "trag": 1027, "gewonnen": 6149, "ud": 837, "test": 3886, "berücksichtigt": 3580, "struktur": 3754, "defin": 2041, "Palästinenser": 7135, "charterer": 7205, "verhindern": 4508, "kontrollen": 7786, "fälle": 3747, "media": 6191, "recognition": 5568, "ished": 4272, "hier": 775, "bereit": 1378, "potent": 7655, "absicht": 4207, "Vorbereit": 5411, "ganze": 7761, "gefallen": 7527, "Häfen": 7124, "ionen": 540, "function": 3413, "unit": 6559, "kung": 3462, "ers": 477, "Portuguese": 2496, "effectiveness": 6133, "becomes": 7514, "Regeln": 4618, "istr": 1229, "schließe": 6842, "grup": 3510, "ret": 1348, "Folge": 5558, "inspe": 2280, "umfassende": 4353, "Effizienz": 4102, "ktoren": 3420, "envis": 3148, "Poettering": 6215, "national": 538, "gewicht": 5304, "verbessern": 4373, "behind": 4196, "coordin": 4919, "Aussprache": 1664, "ight": 559, "ziehen": 1714, "Madam": 2331, "Meer": 4656, "orient": 3668, "stant": 4473, "soc": 2043, "Darüber": 5055, "ere": 162, "Schiff": 1404, "criteria": 4649, "ahl": 1046, "become": 2862, "einbezogen": 7541, "ga": 1488, "harmon": 3569, "satis": 3885, "weden": 4496, ".)": 1960, "Eurojust": 3937, "de": 121, "ihn": 2785, "Risik": 3453, "Forst": 4600, "dank": 7358, "fra": 621, "ielle": 3044, "levels": 4033, "perman": 4924, "ary": 580, "Anpass": 6699, "Menschenrechte": 7962, "Personen": 4652, "Zudem": 7893, "Ruf": 7314, "ired": 3733, "pose": 1770, "caus": 3296, "besch": 1068, "ution": 764, "ear": 593, "Zum": 2972, "miss": 2352, "improving": 6359, "views": 2808, "Morgan": 7305, "amt": 1981, "Januar": 6248, "want": 1006, "Disziplinar": 5659, "ergän": 7462, "particular": 1011, "hind": 3866, "politische": 3059, "Com": 3440, "Vier": 7331, "blower": 7062, "an": 94, "verbot": 7590, "ökonom": 5157, "erarbeiten": 7458, "active": 4283, "ron": 5783, "bear": 3320, "fli": 3863, "Konserv": 7804, "Transparenz": 1791, "worten": 3195, "With": 3267, "Ministers": 7979, "ove": 3877, "dan": 995, "compulsory": 5681, "darlegen": 6000, "Erika": 1774, "ib": 303, "am": 132, "schland": 4503, "ural": 796, "ibliograph": 7709, "ziplin": 4330, "April": 6369, "Gestatten": 7143, "IGC": 7286, "guarantee": 6203, "Denn": 4111, "Rechnung": 3221, "uell": 6742, "Mar": 1123, "non": 3304, "zentral": 2206, "Sorgen": 6221, "unacceptable": 3314, "zugleich": 4504, "hil": 5760, "läge": 1741, "Systems": 4628, "Als": 2414, "replaced": 7501, "Aut": 5169, "entscheid": 4198, "South": 6447, "stellung": 1711, "Amo": 4402, "geleistet": 6299, "minister": 3056, "ize": 3871, "Schwer": 6725, "More": 5725, "reformed": 7839, "edom": 2144, "confirmed": 6306, "Menschen": 1558, "Secondly": 2830, "capit": 6902, "Eurodac": 5917, "She": 4793, "spec": 1336, "Vor": 386, "erfolgen": 6542, "Lauf": 4781, "tim": 499, "NA": 4126, "Just": 2023, "employment": 1557, "Beförderung": 5947, "rück": 6513, "catastrop": 5221, "imm": 396, "doubt": 3579, "body": 3437, "pay": 1758, "Entscheidungen": 4053, "interess": 4265, "requested": 6087, "Dieses": 4276, "gegenseit": 6827, "lig": 2985, "kennt": 4930, "iff": 463, "ftig": 2227, "cent": 4427, "mitted": 3347, "erforderlichen": 6157, "mult": 2988, "cris": 3376, "Europäische": 1087, "Warum": 4699, "mon": 693, "Commissions": 3944, "fs": 7363, "Gebot": 7788, "Verordnung": 3707, "bezogen": 4854, "limited": 4031, "myself": 6809, "including": 2814, "kom": 3647, "hat": 302, "andidaten": 5083, "lägen": 7782, "convenience": 6362, "exact": 3952, "einziger": 6993, "Verbesser": 3504, "Versch": 6670, "argument": 5844, "darstellen": 7757, "ammen": 919, "ding": 581, "taxpay": 6124, "heut": 3689, "dum": 6468, "dieses": 889, "Pers": 2026, "Kultur": 3626, "rap": 1693, "Monetary": 5484, "manufact": 5992, "liegt": 1313, "konnte": 4954, "linary": 4552, "Diskuss": 2423, "Sitzung": 3234, "aly": 3908, "stehen": 1251, "Arbeitsplätzen": 4675, "Zusammenarbeit": 2313, "Aktionsp": 7166, "Wenn": 1295, "environ": 1615, "managed": 5991, "qua": 6703, "solche": 1940, "Prosecutor": 3043, "Initiative": 3586, "point": 798, "nepot": 7603, "Hel": 5713, "deleg": 5873, "concrete": 5428, "pres": 459, "fo": 691, "entrepr": 7519, "welcher": 6852, "isik": 3311, "measure": 4624, "Einwanderung": 5668, "idelines": 1706, "Golan": 3818, "urther": 1690, "nal": 1369, "Vertreter": 4227, "fl": 5229, "star": 2039, "annehmen": 7478, "ision": 6555, "chsel": 5812, "Unterstütz": 1836, "proposal": 1145, "vorliegt": 5956, "möchten": 5988, "call": 1966, "implement": 1012, "Disk": 1796, "Klar": 5719, "Israels": 6866, "somewhat": 6039, "gelöst": 6030, "Bereiche": 4300, "goal": 7759, "utes": 2880, "effort": 6946, "neu": 1499, "zieht": 6846, "feet": 6717, "were": 897, "carefully": 4344, "äum": 2996, "taxpayers": 7197, "deshalb": 2048, "equal": 5228, "Kin": 1678, "ility": 700, "ational": 453, "helfen": 5530, "warning": 7749, "Änderungsantrag": 6167, "gegen": 726, "liable": 5354, "beauf": 3481, "Wirtschaft": 1333, "Katastrophe": 2600, "Kön": 3625, "Parte": 5960, "funden": 5032, "):": 1386, "chten": 3002, "Verbraucher": 3102, "sech": 3684, "mor": 449, "vert": 4507, "comprehensive": 5116, "koll": 3790, "ließen": 5445, "cour": 844, "iegen": 7490, "Wettbewerbsrecht": 7903, "provision": 7025, "ächlich": 4006, "verme": 7586, "san": 7412, "technolo": 6141, "Theato": 1894, "earth": 7811, "understand": 1942, "ev": 786, "addition": 2935, "av": 1484, "ha": 187, "keiner": 6493, "water": 3306, "Agreement": 6370, "wettbewerb": 2956, "betroffen": 3161, "ingen": 1164, "tell": 723, "Mio": 4125, "entwic": 3438, "elle": 6014, "dimension": 4141, "Argument": 6002, "wn": 1194, "Question": 1956, "Wochen": 5056, "katastrop": 3137, "proud": 7609, "pun": 4164, "presentation": 6828, "wesentlich": 4998, "ations": 486, "fight": 4437, "Septem": 2801, "independence": 7234, "sens": 7645, "sofern": 5081, "frame": 2304, "Fr": 401, "proved": 1941, "Audit": 4392, "Kommissionsmitglie": 2332, "gehören": 4050, "Kohäsion": 6292, "denken": 1653, "Verantwortung": 1476, "bestät": 4299, "gte": 2274, "möchte": 483, "have": 233, "Group": 1638, "..": 2430, "five": 3459, "fassen": 1567, "vergangenen": 3695, "Drittens": 4706, "openness": 6389, "l": 64, "EUR": 1629, "innen": 997, "vorlegen": 4533, "bede": 2283, "conditions": 2170, "Sardellen": 7213, "engen": 2998, "ideas": 6784, "Israelis": 3064, "Ziele": 2973, "ismus": 3555, "effectively": 5533, "Weihnachts": 7229, "glie": 526, "Betrü": 6104, "einfach": 2656, "13": 2723, "anz": 689, "lä": 470, "Änderungsanträge": 3412, "wiß": 5876, "Vorsitz": 6750, "akter": 7827, "scheint": 2942, "dac": 5897, "Abschaffung": 6393, "contribution": 5551, "zurückzu": 6952, "stabil": 7507, "appoint": 4542, "form": 336, "Bereitstellung": 6303, "Jer": 7288, "erfü": 3150, "Ste": 1440, "far": 1209, "ence": 2999, "ommission": 166, "Indeed": 2603, "Barak": 2817, "conf": 1065, "rau": 5786, "antic": 5965, "lands": 7929, "White": 1785, "Anerkennung": 6391, "judicial": 4363, "Diskriminierungen": 7138, "your": 1100, "isches": 3499, "rigorous": 6283, "Sozialfonds": 6962, "worked": 7823, "anim": 4185, "Nations": 4785, "wurde": 719, "reco": 1914, "envisage": 6250, "energy": 5133, "beglückwün": 3768, "German": 5004, "signed": 5521, "Vorsch": 657, "tribute": 6929, "rough": 1792, "lasten": 7636, "ibility": 4920, "Ged": 3850, "ugen": 3888, "shows": 5573, "beschäft": 3065, "Überwachung": 3265, "yer": 4176, "tes": 2644, "eded": 3129, "anker": 3202, "isiert": 3154, "bitte": 2628, "...": 6205, "main": 1736, "liament": 415, "commun": 2164, "lon": 2638, "angewendet": 6789, "Umweltkatastrop": 6162, "Untersuch": 3536, "gestellten": 6890, "Grup": 4969, "together": 3328, "dliche": 6470, "plex": 7756, "fel": 3722, "Mitteil": 7735, "ification": 2485, "da": 160, "world": 3363, "Beitrag": 3582, "umfassen": 2381, "becoming": 5853, "greifen": 2714, "sagt": 4916, "issue": 797, "reit": 6571, "od": 539, "Schlußfol": 5595, "author": 819, "vollständig": 5504, "stell": 759, "done": 1417, "auch": 260, "und": 129, "öt": 3146, "ratified": 7923, "exercise": 6287, "Palestin": 2953, "case": 1556, "eingehalten": 7988, "sib": 598, "erfordert": 6928, "gewährleisten": 3809, "sagte": 2778, "col": 5748, "again": 1555, "tabel": 4898, "medium": 5552, "kteure": 6863, "Lond": 7301, "demands": 6193, "vorgeschlagen": 3820, "ded": 790, "behalt": 7516, "Gipfel": 6346, "Rechtsvorschriften": 3224, "same": 880, "probably": 4736, "ium": 1420, "scoreboard": 4313, "liegenden": 7924, "Aspe": 2073, "werten": 6651, "importance": 2306, "gabe": 2178, "akes": 6816, "Gesetzgebung": 4696, "pect": 943, "pending": 7966, "Nat": 1563, "ades": 6456, "angemessen": 4569, "art": 345, "cken": 4904, "money": 2721, "outstanding": 7733, "monetary": 7826, "angewiesen": 6787, "eigen": 2444, "Ev": 3844, "Kohäs": 4105, "Proto": 3365, "sol": 604, "präs": 7404, "scheiden": 2312, "Mittel": 1217, "est": 196, "Haftung": 5023, "är": 747, "Funds": 2433, "years": 1203, "inde": 1424, "since": 1908, "actually": 2687, "little": 2071, "ench": 4180, "Members": 1667, "israelischen": 7109, "scht": 4500, "fav": 1737, "clean": 6269, "sea": 4499, "bst": 1262, "ives": 1001, "Ausführungen": 4929, "ame": 1227, "lied": 3950, "zeichen": 4333, "comes": 1699, "Leist": 4994, "ances": 7479, "25": 2072, "uneingeschrän": 5283, "ckt": 2978, "bra": 6459, "sp": 214, "Kü": 4412, "worst": 5979, "trust": 5921, "iene": 6734, "Vereinten": 6201, "intens": 5811, "zufrieden": 5160, "merger": 6077, "übernehmen": 4540, "inos": 7466, "tel": 535, "visit": 6868, "Beding": 2823, "speculative": 7937, "extremely": 2127, "Although": 6117, "text": 2094, "aren": 5843, "indest": 3344, "private": 4679, "operation": 1436, "ärkt": 5454, "nahmen": 860, "initiative": 2257, "irgend": 3935, "rec": 1578, "clim": 4430, "cedented": 6833, "Verbesserung": 4381, "age": 547, "weiterhin": 4602, "erreicht": 4462, "[BOS]": 1, "klä": 1156, "perip": 6730, "zeß": 1503, "crime": 3989, "Irland": 3821, "sprinzip": 5039, "Kapital": 3269, "undert": 6810, "vast": 3469, "could": 1239, "resignation": 7188, "natur": 5487, "political": 1635, "ausführ": 4524, "Wor": 2971, "repress": 7497, "pri": 1218, "französ": 6044, "iar": 1901, "mber": 4817, "hän": 1301, "Proced": 4928, "sometimes": 4728, "developed": 6860, "policy": 646, "implementation": 2174, "bating": 4426, "cover": 2390, "oper": 909, "öhn": 7446, "fällen": 7845, "gemeinsam": 2256, "uß": 301, "ast": 403, "gender": 3496, "vielmehr": 4983, "geändert": 7529, "rapid": 5019, "clo": 6463, "modernisiert": 7992, "betroffenen": 5600, "ought": 2585, "Asia": 6066, "zahlreichen": 7999, "war": 365, "resolved": 7917, "Asyl": 3218, "Verkehr": 2666, "igkeiten": 2402, "Cres": 4767, "jüngsten": 5127, "wi": 123, "Solidarität": 3423, "orted": 3478, "Vorred": 5410, "nock": 1825, "fonds": 1643, "nature": 5488, "fährt": 6987, "1997": 1628, "Verhält": 6671, "prec": 1938, "position": 2052, "opol": 3180, "kis": 5766, "wertung": 4882, "dabei": 2878, "Erweiter": 3730, "Osten": 3117, "greif": 2247, "cont": 1165, "Ihr": 3286, "1995": 4935, "comp": 962, "Erfolg": 4254, "Bürokratie": 5669, "wort": 728, "arrange": 6242, "os": 1421, "ics": 3491, "legt": 4927, "experts": 4340, "help": 2420, "Staats": 2925, "entsprechenden": 6170, "Cad": 5173, "abol": 4873, "sto": 4192, "deut": 718, "letzte": 4603, "federal": 6718, "konkre": 2057, "meas": 1353, "ne": 167, "que": 6704, "sämt": 6382, "liste": 5773, "olog": 1583, "strateg": 1405, "ament": 259, "raten": 6514, "Amt": 7986, "los": 1141, "Bewertung": 5946, "erkannt": 6543, "Prüfung": 6261, "fert": 3298, "timetable": 7192, "consider": 813, "Furthermore": 5130, "rac": 6638, "tal": 1528, "nung": 615, "Innen": 7665, "bad": 4138, "erläutert": 7129, "festgelegt": 4614, "UN": 4422, "orientierte": 7063, "erheblich": 6169, "spir": 3704, "ines": 5808, "anks": 4952, "gefördert": 7531, "honourable": 3268, "ying": 4453, "certainty": 3547, "type": 3067, "setzt": 6034, "Straf": 4644, "nten": 2989, "Inspe": 3507, "wissenschaft": 3397, "swer": 5253, "now": 502, "fehlen": 5544, "double": 5038, "bedingungen": 3570, "intentions": 5430, "ommiss": 156, "zurück": 2107, "uni": 2649, "consideration": 3385, "imple": 941, "contra": 5910, "Sie": 417, "element": 5528, "ß": 82, "economies": 6856, "wo": 444, "programm": 1320, "visa": 7889, "ik": 346, "challen": 4183, "defined": 6176, "Real": 7659, "Opf": 5198, "ätigkeit": 4957, "ground": 4573, "heart": 3924, "zeige": 5388, "up": 379, "Koordin": 4607, "thanking": 7932, "vision": 2587, "079": 4336, "qualified": 7935, "Stabilität": 6724, "legitimate": 7068, "reason": 1888, "sieht": 4558, "xem": 7432, "sides": 7947, "radical": 5614, "Proje": 2476, "reas": 788, "Verlust": 5936, "through": 1816, "points": 2328, "procedures": 4052, "perpetr": 6731, "conclusion": 4357, "further": 2196, "much": 1110, "nächste": 5553, "ptem": 2750, "playing": 6977, "recog": 1959, "78": 4758, "Sicherheit": 1206, "necessarily": 5499, "crit": 1967, "per": 339, "acy": 7750, "herzlich": 6009, "interinstitutional": 6769, "funding": 4337, "suspen": 6224, "reforms": 2688, "igr": 2466, "sine": 7416, "pus": 4822, "exists": 6905, "current": 3081, "bisher": 2060, "dangerous": 2427, "Steuer": 2177, "part": 510, "hrend": 4209, "unterstrichen": 7768, "sympathy": 4750, "Sum": 4131, "Reg": 533, "grant": 3033, "fraud": 2110, "crucial": 4741, "eingesetzt": 7539, "gereien": 6129, "Arbeit": 842, "Ihrer": 7037, "pie": 6509, "regelmäß": 4057, "dire": 894, "higher": 5506, "verm": 6628, "interne": 6768, "Ne": 2077, "Wicht": 4797, "genteil": 6211, "stimmen": 2367, "Durchführung": 3793, "off": 777, "indic": 4520, "ximum": 7434, "highly": 6194, "bau": 1520, "prob": 4213, "working": 2564, "poin": 1872, "intro": 1814, "ating": 998, "into": 885, "Zusagen": 7856, "führung": 2305, "ahre": 1994, "aussch": 2557, "ante": 1684, "tion": 1811, "Auß": 2021, "le": 111, "cru": 4277, "Auft": 6781, "nachts": 6760, "iarität": 4339, "jedem": 5999, "ciety": 7355, "BIP": 6325, "aspekt": 7521, "Char": 4768, "zugrunde": 6387, "Str": 875, "deten": 5872, "one": 373, "ene": 6536, "wiesen": 2541, "members": 4084, "morning": 7778, "ually": 1910, "might": 3872, "environment": 3565, "wieder": 1025, "Verbind": 5357, "uro": 178, "ass": 500, "businesses": 6174, "ancial": 971, "199": 389, "another": 2364, "ighten": 6218, "save": 5975, "glichen": 2347, "ce": 197, "rep": 3669, "zuständ": 4505, "comment": 4953, "intends": 4658, "requir": 4010, "nämlich": 3104, "el": 442, "Kohäsionsfonds": 7088, "tape": 7664, "even": 1554, "also": 309, "teilweise": 7818, "utz": 1102, "ther": 341, "dagegen": 5898, "Dafür": 5492, "hist": 7374, "jo": 2637, "grunds": 3353, "Analyse": 4739, "Vat": 7330, "Dinge": 4112, "uch": 599, "mone": 2639, "fall": 895, "if": 279, "Unsicherheit": 7652, "Standpunkt": 3802, "account": 1292, "Dalai": 4733, "hne": 6481, "E": 29, "ien": 342, "require": 1236, "face": 3360, "imper": 7561, "stet": 3480, "wever": 820, "verantwort": 3333, "hatten": 3189, "promised": 6230, "said": 1182, "sibilities": 6802, "sh": 277, "Al": 1273, "iss": 142, "Prime": 6970, "genau": 2877, "Problemen": 5520, "zwar": 1813, "con": 179, "strengthened": 6234, "erreichen": 3308, "zeich": 1625, "rit": 475, "amended": 5001, "Nevertheless": 4342, "on": 91, "zwei": 1786, "concerned": 1840, "reasonable": 6164, "roed": 2213, "dex": 2866, "tbewerb": 560, "faßt": 3192, "tr": 212, "hig": 1278, "Abgeordneter": 2805, "weaken": 7154, "Än": 1225, "Organisation": 5077, "compens": 4984, "31": 7246, "We": 249, "Bekämpfung": 3350, "decis": 1219, "fragt": 4577, "verstehe": 5336, "ices": 2376, "react": 5836, "näher": 7151, "M": 37, "äch": 876, "Erarbeitung": 5407, "sein": 564, "Zusätz": 7857, "wee": 2869, "significance": 7030, "scand": 5502, "onder": 729, "öffent": 2015, "amo": 3330, "iat": 6484, "Bediensteten": 7200, "atch": 7485, "dort": 2443, "kn": 6488, "pr": 439, "clos": 3127, "hätten": 4662, "Bas": 4107, "weitere": 3201, "li": 217, "communitisation": 6186, "isk": 970, "systems": 3746, "sensitive": 4738, "Veränderung": 7022, "istic": 6645, "use": 1422, "braucht": 3060, "GD": 5180, "sicherstellen": 6886, "however": 1507, "And": 2157, "sult": 4168, "subject": 2114, "occas": 3552, "majority": 4045, "zept": 1927, "Dsir": 5152, "40": 3106, "C5": 7267, "regional": 979, "President": 406, "circ": 3103, "cred": 5220, "ah": 325, "Verfahrens": 7013, "Hande": 5184, "Wann": 7335, "Fl": 3619, "sten": 663, "coun": 536, "Wal": 3292, "Kam": 5718, "diesmal": 7627, "prof": 2380, "voll": 1255, "ieren": 532, "getroffen": 3484, "Im": 1150, "matters": 3390, "centr": 7353, "Aufnahme": 6073, "icht": 138, "unterstütz": 1432, "k": 63, "ästinens": 2717, "aging": 3194, "künftig": 3566, "pt": 522, "bezug": 1728, "year": 744, "linked": 6007, "struct": 1382, "err": 280, "problems": 2059, "confidential": 7195, "ay": 468, "officials": 2711, "voc": 4947, "owners": 7902, "section": 6611, "deutlich": 2802, "gesamten": 6231, "mittl": 6262, "anon": 4844, "town": 6590, "schaft": 318, "bodies": 6814, "ing": 127, "pon": 741, "näm": 2990, "stage": 4256, "techn": 2016, "damals": 6070, "Fehl": 5020, "Gelegenheit": 4564, "prüfen": 2325, "iddle": 2768, "Aktion": 5693, "können": 578, "anal": 2859, "volle": 3470, "Gegensatz": 6995, "geeig": 7526, "reconsider": 7496, "EN": 7275, "recognised": 6338, "Amoco": 6308, "ländlichen": 5592, "mün": 4934, "lear": 603, "register": 4246, "Cor": 7269, "idence": 2248, "Palestinians": 6235, "sing": 2086, "future": 1487, "Markt": 1475, "Bereit": 4292, "recommend": 3157, "fficient": 2122, "Berend": 4922, "waren": 1930, "erste": 3661, "anyone": 7816, "ränkung": 6921, "III": 5072, "sid": 1394, "increas": 1319, "Crespo": 5660, "ost": 5250, "bezie": 3912, "Third": 4530, "yo": 3891, "ative": 622, "lead": 2538, "zeug": 2904, "festgelegten": 7912, "itä": 2532, "daraus": 6753, "naturally": 6366, "created": 5515, "menistan": 7669, "taking": 2230, "explanation": 6315, "iges": 2467, "linien": 1506, "kers": 4155, "Ansicht": 1331, "their": 656, "Aufmerksamkeit": 4749, "aking": 5210, "Verträge": 4895, "critical": 6941, "räum": 3723, "prepar": 3980, "Time": 7327, "Kinnock": 1848, "everybody": 7944, "cument": 1858, "consumers": 6244, "benefit": 6265, "g": 59, "Stur": 4923, "uese": 2455, "ble": 441, "ateg": 1066, "allgem": 3701, "ökon": 4837, "Hö": 4120, "bas": 1132, "sa": 296, "writ": 7430, "strongly": 7052, "stress": 3910, "answer": 2001, "verweisen": 6633, "institutionellen": 6268, "Hause": 6424, "gefunden": 5864, "weap": 3168, "back": 2029, "besondere": 1411, "advoc": 5968, "forward": 1917, "Freiheit": 2260, "Schlußfolgerungen": 6368, "Abstimmung": 2017, "tainty": 3100, "Any": 5377, "Verwaltung": 2941, "assist": 3205, "contained": 5068, "jedoch": 861, "fragen": 1885, "depleted": 5674, "glau": 1900, "deck": 6597, "ele": 1680, "consequ": 3934, "läu": 3047, "issues": 1498, "data": 7217, "41": 7247, "größer": 6165, "Bay": 7264, "gent": 2520, "tbewer": 556, "insof": 6855, "lern": 7389, "bewuß": 3322, "lost": 6708, "gentlemen": 4671, "erwä": 6541, "bewertung": 7797, "fully": 1559, "confident": 6098, "Überwach": 2583, "Neu": 6948, "entspricht": 4858, "Bür": 1121, "folgen": 2007, "med": 2203, "stehe": 4238, "großen": 2401, "uted": 4451, "happy": 4326, "indepen": 6899, "proposed": 2576, "voranzu": 7689, "ibt": 733, "But": 914, "promotion": 5906, "enforcement": 4688, "discussing": 4312, "ifell": 5383, "diesen": 888, "spezie": 3731, "Financial": 4286, "Positivliste": 7201, "inner": 3310, "whilst": 7621, "good": 1377, "food": 1470, "fun": 1969, "Europe": 273, "ivliste": 6716, "einiger": 6594, "publish": 3816, "senior": 4889, "uf": 2137, "achieved": 4041, "checks": 4951, "wichtiger": 6065, "cost": 3962, "C": 27, "ctor": 1869, "ätz": 1530, "ember": 445, "Accord": 4388, "mitteln": 4289, "programms": 7840, "day": 827, "MEs": 5193, "erien": 3662, "P": 40, "ensure": 1614, "bildung": 7982, "Tätigkeit": 7328, "reden": 5832, "lok": 4537, "unehmen": 3667, "britischen": 7134, "förder": 3087, "Fälle": 4680, "wirtschaft": 958, "Ratspräsidenten": 6245, "This": 419, "Behörde": 1697, "progress": 2882, "Berücksicht": 5392, "Fund": 3112, "During": 7273, "wier": 1979, "könnten": 6023, "Eng": 6147, "Fragen": 1665, "contribute": 4654, "Haushaltsjahr": 5526, "Zwe": 2513, "advance": 6202, "dealt": 7545, "xious": 7433, "zuzu": 5327, "gerichtet": 4940, "administr": 1793, "overall": 4977, "is": 92, "ards": 1452, "züglich": 3425, "positiv": 7918, "sound": 3494, "begrü": 1597, "various": 2827, "package": 5629, "ordn": 3518, "conclu": 3533, "occasion": 4713, "steller": 7841, "achieve": 2703, "Krise": 6188, "inten": 2279, "MU": 5191, "hlt": 4148, "wodurch": 7775, "carried": 3403, "Europäischen": 712, "weitergehen": 7876, "ABB": 6323, "illion": 2480, "provid": 4971, "Under": 7649, "llt": 2868, "car": 1388, "sitzung": 7824, "prüft": 4633, "introduction": 7985, "note": 5338, "stark": 3416, "gency": 2767, "ir": 180, "support": 853, "tection": 7543, "Beitrittsk": 6319, "urely": 4944, "reformieren": 6834, "Can": 6408, "communication": 3803, "words": 2780, "Flü": 3849, "Ara": 7258, "q": 69, "instruments": 6183, "present": 734, "subsequ": 7852, "ihnen": 2569, "accountable": 6118, "Liber": 7045, "Bemühungen": 2960, "whistle": 6652, "toug": 5305, "sehe": 5322, "18": 5686, "Effe": 5704, "Erweiterung": 4387, "Control": 4622, "Kooperations": 7887, "above": 3925, "lg": 5769, "imp": 2146, "erfolg": 4182, "wirklich": 2010, "extent": 3715, "gern": 2135, "Mitglieder": 3988, "Kommissarin": 2009, "competitive": 4367, "000": 874, "legally": 6736, "enlarge": 3660, "actions": 3216, "atis": 3006, "Der": 609, "instreaming": 3609, "ung": 118, "staats": 5422, "recently": 4040, "einz": 2540, "Nationen": 4128, "Mißwirtschaft": 6259, "right": 922, "ienste": 5985, "utet": 2796, "Durchsetzung": 6940, "did": 2517, "nichts": 2226, "neuer": 4879, "Seine": 7318, "11": 4751, "Fol": 2267, "(": 6, "abon": 7577, "6": 18, "gro": 573, "Ob": 3116, "Ziels": 6128, "systematic": 6829, "sondern": 1202, "kan": 4152, "wick": 1021, "annual": 7710, "takes": 3028, "Schritt": 3516, "cord": 4139, "ckson": 7690, "prep": 3048, "wind": 5799, "ulsor": 5350, "euro": 548, "possibly": 6364, "Heil": 6425, "zep": 3037, "months": 2330, "cre": 1522, "My": 2268, "scheme": 7080, "passiert": 5015, "oment": 2092, "itut": 1035, "fre": 703, "funktion": 2633, "d": 56, "Berichterstatter": 1414, "bo": 677, "asks": 7870, "anzu": 3312, "Außerdem": 2947, "US": 4132, "Despite": 7941, "Tats": 2970, "zweit": 2361, "Falle": 5178, "anspruch": 7798, "einsetzen": 5307, "Respe": 7313, "there": 327, "grounds": 6036, "wirk": 908, "inclu": 1290, "icult": 1453, "cated": 6464, "ak": 694, "amoun": 5607, "lt": 469, "restrict": 5587, "pted": 5252, "konkrete": 3796, "Ver": 226, "Stellen": 5008, "low": 4538, "greater": 2686, "/": 11, "iti": 955, "thousands": 7222, "free": 3744, "hinweisen": 4271, "strafrecht": 6253, "sse": 2850, "approach": 2697, "andoned": 7549, "meet": 1923, "bestimmt": 7878, "cas": 903, "society": 3252, "Oz": 7308, "führ": 649, "cap": 1524, "Brüssel": 5129, "targe": 6522, "belong": 7513, "uten": 2752, "etimes": 3940, "Generalstaats": 6146, "provis": 3054, "Wettbewerbsbericht": 7905, "prom": 2881, "Wir": 322, "mand": 5243, "hü": 6477, "schrift": 5882, "matter": 1031, "laub": 4996, "begrenz": 7913, "lays": 7637, "äden": 4178, "achtet": 5349, "Jahres": 2411, "opposed": 5941, "old": 2879, "dritte": 7360, "finally": 4932, "zw": 680, "pointed": 5541, "Leben": 1081, "establishment": 4035, "Sicherhe": 3755, "spür": 6664, "ierten": 2291, "Palacio": 2811, "ktor": 2225, "Ansichten": 5508, "publi": 6223, "jün": 3646, "vorhan": 3956, "iplinary": 4568, "verständlich": 3795, "ever": 3458, "Verwaltungs": 2821, "ieben": 4848, "Therefore": 4004, "überprüft": 7706, "beschäftigt": 7027, "inspections": 5560, "sbe": 3465, "governmental": 3233, "union": 5279, "einzelnen": 2497, "Funktionieren": 5632, "appeal": 6964, "Energie": 5143, "Vertrag": 2386, "handeln": 3560, "any": 640, "skept": 6521, "draw": 3229, "Marktwirtschaft": 6134, "requirements": 2812, "oppos": 7677, "workers": 4582, "Dub": 4772, "räge": 6720, "looking": 4721, "bestehen": 1949, "handelt": 2324, "nolo": 4876, "nium": 5778, "re": 101, "Mitteilung": 4251, "RINA": 6442, "sollen": 3176, "inadequate": 7468, "Development": 6365, "circum": 3275, "ser": 706, "Behörden": 2897, "gang": 2055, "act": 702, "arabischen": 7152, "einschaft": 973, "Anstrengungen": 5163, "sub": 810, "entliche": 4856, "wicklung": 5483, "gemeinsamen": 3256, "Gomes": 7279, "them": 1020, "har": 1806, "wenig": 2299, "Wider": 4798, "intended": 6196, "ilemma": 7871, "igreich": 7557, "additional": 6233, "Irel": 3448, "ordinary": 6158, "According": 4399, "subsid": 2171, "3": 15, "high": 2255, "gerade": 3732, "ittees": 5453, "common": 1879, "house": 4808, "itiz": 1451, "70": 7251, "Article": 2610, "Verfü": 3345, "certific": 6086, "dr": 752, "ses": 7411, "slick": 6519, "Unglück": 7653, "Sachverständ": 3563, "Kün": 7295, "sicher": 1252, "existiert": 7961, "independent": 3557, "ordnungs": 4710, "Monaten": 3761, "side": 5790, "Amsterdam": 3085, "dec": 717, "hang": 1568, "itime": 4187, "ys": 1911, "ganz": 982, "xis": 4175, "fif": 7365, "sign": 1613, "behaviour": 6386, "immer": 1143, "Ordnung": 5517, "kün": 1644, "sum": 4166, "people": 957, "ragen": 2378, "Dec": 3750, "committed": 5027, "ma": 266, "deser": 4523, "eingehen": 3329, "86": 4759, "ks": 1279, "partnership": 6289, "Bet": 1131, "Kollegen": 1055, "jähr": 6487, "company": 4011, "nach": 432, "Ereig": 5661, "Gericht": 4032, "Rapkay": 2611, "ter": 152, "necess": 1181, "abhäng": 2018, "democ": 5375, "AC": 3281, "weiter": 913, "gewähr": 2372, "efficient": 4806, "Society": 7817, "research": 5162, "sach": 4829, "Do": 3617, "ahmen": 1431, "reg": 311, "kept": 4881, "spricht": 3501, "chtern": 6549, "lacking": 7984, "getreten": 5861, "able": 356, "ds": 443, "amerik": 6604, "Beif": 7682, "iers": 5348, "involving": 4046, "many": 1026, "betreffen": 4366, "zahl": 1975, "IS": 4121, "kehr": 2046, "ended": 7449, "EG": 4113, "ichten": 3171, "nicht": 208, "Par": 265, "Chin": 2835, "erscheint": 6544, "well": 1138, "land": 1280, "llte": 4867, "After": 4762, "raise": 3926, "reyer": 5287, "tough": 6357, "Für": 2838, "rete": 5286, "islang": 6843, "Palestinian": 4078, "core": 7354, "appl": 3719, "read": 927, "könnte": 2241, "fil": 4436, "Risiken": 7047, "Abschließend": 4938, "mix": 7396, "elements": 6151, "met": 4818, "widmen": 7185, "pur": 2641, "stu": 5840, "pä": 313, "wan": 6527, "von": 207, "falt": 7366, "amendments": 2013, "Vorschläge": 2112, "always": 2652, "Normen": 4678, "ße": 1042, "isse": 3664, "mag": 5961, "schreck": 6270, "bieten": 4617, "[UNK]": 3, "standen": 3561, "icial": 1538, "equ": 4142, "so": 153, "Mehrheit": 4691, "elected": 6918, "imin": 1115, "ians": 4441, "first": 1015, "wichtigen": 3380, "ial": 252, "bringen": 2108, "ifiz": 2051, "listen": 4815, "rein": 3906, "balance": 5509, "extra": 5950, "atastrop": 1149, "stimmt": 4620, "strategie": 5511, "erl": 7451, "Power": 6213, "ige": 387, "mod": 5417, "Zuständigkeit": 6340, "isp": 7475, "Aufgabe": 3384, "here": 989, "utions": 2553, "Directive": 5044, "100": 4752, "agreed": 4003, "ights": 5432, "klaren": 6873, "reform": 757, "för": 1860, "Gruppe": 6337, "to": 114, "ente": 5299, "rieg": 6114, "exter": 4527, "unter": 427, "office": 5457, "damaging": 7849, "possib": 5401, "entwurf": 4857, "princip": 7949, "ew": 5755, "nehm": 3214, "espe": 1724, "spolitik": 1105, "Finanzkontrolleur": 6997, "illen": 5239, "Lib": 5723, "Betrug": 2608, "griffen": 5610, "aims": 6238, "rural": 3883, "Kraft": 3449, "Even": 5705, "rong": 3882, "bare": 3126, "benötigen": 5137, "bul": 7348, "Spe": 4794, "tem": 1350, "schieden": 1427, "Flag": 4116, "operating": 6857, "Dazu": 3391, "nerstag": 6331, "notice": 7632, "cooper": 4918, "bereitet": 7945, "28": 7243, "erwar": 2363, "oured": 6617, "legen": 898, "debated": 7858, "sozial": 1400, "Kontroll": 5435, "boost": 6815, "Bedenken": 3349, "anything": 6808, "ffizient": 5582, "lagerung": 6663, "mark": 2109, "Sozial": 2245, "aufmerksam": 4220, "sage": 4243, "palästinens": 4104, "my": 650, "encour": 3472, "that": 164, "pp": 654, "gegeben": 1652, "Aud": 3976, "Gefällig": 7789, "gensen": 7599, "frage": 1130, "sprechen": 1272, "isen": 1043, "wor": 326, "begrün": 4615, "considers": 7853, "entwickeln": 5093, "condition": 4597, "Ve": 7329, "ging": 3865, "sogar": 3495, "ied": 925, "ull": 1098, "gehen": 1044, "Gar": 6420, "dlichen": 4804, "would": 344, "Li": 3450, "entail": 5856, "vergessen": 6361, "fö": 6474, "voted": 3371, "Rechenschaftspflicht": 6342, "Cadiz": 6344, "Tr": 1093, "Gewalt": 6778, "Spiel": 7321, "kann": 472, "operations": 6083, "beits": 1617, "gew": 1651, "worry": 7722, "propose": 3932, "conce": 7614, "irregular": 5912, "pron": 7774, "previous": 2793, "schließend": 3546, "ep": 2518, "Diskrimin": 5022, "directives": 7004, "these": 600, "sorg": 4619, "1967": 6195, "esten": 5274, "chance": 7470, "breit": 3568, "Beam": 2558, "privile": 5584, "Gewähr": 6779, "hether": 1692, "van": 968, "mö": 361, "Costa": 4960, "prote": 1986, "verschiedenen": 3595, "Fe": 1750, "as": 112, "advisers": 7157, "try": 6660, "ent": 110, "wesentliche": 7043, "strategy": 4036, "manag": 3969, "por": 2992, "Offenheit": 7125, "Dezember": 5139, "ut": 174, "ländern": 7390, "some": 575, "justice": 1671, "Friedensprozeß": 4054, "iple": 1526, "press": 1053, "atter": 667, "Maß": 4294, "krat": 3648, "spart": 5925, "Ressourcen": 7010, "penditure": 7967, "ably": 2375, "ex": 250, "Überlegungen": 6851, "advan": 5379, "cy": 614, "play": 2404, "undertaken": 6050, "proper": 1987, "Dabei": 2930, "professional": 4714, "hinnehmbar": 7793, "h": 60, "Rates": 2189, "pla": 710, "ratifiz": 7922, "chte": 395, "Kohäsionspolitik": 7206, "erfüllen": 5082, "steuro": 5963, "Randlage": 6309, "cks": 3183, "agriculture": 7345, "vorzu": 3716, "umzu": 4217, "wal": 2645, "lassen": 1445, "ently": 1349, "inking": 3900, "itu": 3477, "hinter": 5237, "o": 67, "Haushaltskontroll": 7972, "dete": 5311, "conv": 5907, "Förderung": 4707, "known": 7885, "include": 2934, "amb": 6603, "bekommen": 5850, "Das": 369, "ice": 628, "hande": 1514, "zuläss": 5885, "Projekt": 5566, "tanker": 5795, "Realität": 5360, "wahr": 4024, "shown": 4911, "Eind": 3845, "Kann": 7294, "declared": 7194, "Notwend": 3422, "unktion": 1939, "trieben": 5923, "sorgen": 3770, "societies": 6177, "wenn": 629, "Gesetz": 3238, "genann": 3338, "rational": 7407, "Gegen": 2571, "strichen": 6733, "He": 2074, "DE": 4769, "think": 1033, "user": 7623, "allem": 1668, "show": 2559, "areas": 1621, "resour": 1826, "avoid": 6351, "IM": 6428, "Analy": 4240, "Änderungs": 1955, "Ko": 1014, "isenberg": 7892, "Not": 2314, "igend": 5321, "zeitig": 2694, "raised": 2379, "Bedienste": 6159, "dre": 7357, "renational": 5033, "tober": 7535, "nischen": 7397, "Versicher": 5933, "truly": 5922, "most": 1047, "Unfortunately": 3502, "wom": 4833, "parliamentary": 5124, "istisch": 5341, "everything": 4626, "wichtigsten": 4320, "Gere": 3620, "iency": 3727, "lker": 4160, "Safety": 5131, "Abkommens": 6005, "Beantwort": 7683, "considering": 7854, "Fün": 6417, "jor": 1681, "granted": 3955, "ings": 2763, "stum": 5841, "firstly": 4014, "pleas": 2786, "They": 1871, "halts": 4921, "self": 1883, "Empf": 7995, "iety": 2366, "weg": 2870, "among": 3681, "klein": 3810, "reichung": 6804, "tonnes": 7048, "ohnehin": 6900, "Dien": 2615, "fortsetzen": 7114, "Econom": 4406, "concerns": 1781, "künd": 4640, "Erwartungen": 5149, "heer": 3172, "ulations": 4888, "vielen": 3223, "inced": 7784, "fast": 5977, "verges": 5333, "en": 86, "Geld": 3203, "88": 7255, "1996": 2392, "he": 144, "nahe": 5779, "danke": 3550, "Europa": 945, "ationen": 2662, "exemption": 5654, "perfe": 3966, "Wo": 2439, "The": 211, "Wert": 7336, "Vö": 5204, "added": 7699, "share": 3096, "ern": 298, "angt": 5819, "iere": 4440, "wettbewerbspolit": 5590, "beschäftigen": 4689, "kön": 492, "buch": 1521, "accident": 6914, "Gleich": 1365, "Anfrage": 1501, "get": 789, "gleich": 863, "Shar": 6446, "jed": 766, "atisch": 3905, "failed": 6715, "kür": 4154, "Sch": 330, "Asylbewerber": 6256, "fand": 7364, "zu": 141, "special": 1932, "praktisch": 7036, "neither": 6643, "Vitor": 2730, "live": 3943, "wachstum": 7931, "rechte": 3907, "legungen": 5986, "Entwicklungs": 4307, "TÜ": 6448, "ction": 495, "Ges": 1344, "ping": 4165, "gemeinsame": 3771, "coming": 2233, "080": 5684, "anträgen": 5820, "Stahl": 2250, "polic": 551, "Überwachungs": 6996, "istische": 5902, "fair": 3359, "Richtlinien": 7919, "Only": 5559, "zel": 1464, "formul": 6729, "aged": 2574, "ach": 200, "cold": 7356, "äuß": 2035, "Tre": 1482, "pleased": 4076, "Budget": 3842, "especially": 1957, "princ": 1407, "ständige": 6081, "Kar": 2617, "Gleichstellungs": 4321, "enthält": 6958, "liebe": 3714, "dings": 1670, "reiben": 6871, "TO": 5728, "accountability": 6889, "ise": 423, "environmental": 2326, "we": 133, "Hulten": 1293, "letzten": 1361, "Meiner": 3631, "Antrag": 3185, "Protokoll": 3829, "nutzen": 5249, "Co": 537, "adopting": 7933, "ms": 817, "Haus": 985, "kei": 3929, "Hinter": 7281, "ause": 869, "das": 227, "wet": 2542, "ands": 4493, "Stru": 1056, "streng": 1928, "reichend": 3053, "congratulate": 2954, "possible": 1545, "itik": 610, "timet": 6025, "raph": 2327, "Jahre": 2075, "ständ": 886, "gegebenenfalls": 7100, "var": 2277, "teilt": 3742, "kte": 1004, "resources": 2181, "observ": 3524, "gezogen": 5862, "coordination": 5665, "jeweil": 3970, "träge": 1783, "hear": 2374, "gung": 2447, "sit": 679, "lo": 278, "abgeschlossen": 5331, "unver": 5823, "llten": 7551, "arab": 5292, "schwe": 6616, "Mr": 274, "Where": 5738, "Kyoto": 6374, "Glück": 6421, "uary": 3468, "sind": 337, "Vereinbarung": 7161, "fam": 5230, "reje": 5835, "Palest": 2412, "ved": 1647, "Armut": 7760, "steht": 1701, "contin": 1385, "arenz": 1726, "inational": 5810, "appeared": 6965, "Zeitpunkt": 3382, "financial": 1089, "eren": 552, "f": 58, "Projekten": 6985, "nehmer": 3987, "trotz": 3361, "Erwart": 4547, "um": 188, "ßte": 4177, "spielen": 6665, "Initi": 2231, "hase": 4915, "ring": 4825, "adv": 2388, "falls": 1594, "alten": 1685, "besonders": 2116, "powers": 5043, "plore": 6054, "Berücksichtigung": 5678, "ish": 520, "Mär": 4414, "finanziellen": 3406, "licht": 1444, "Gew": 6777, "amental": 3717, "Programms": 6870, "hnen": 5761, "hes": 2348, "igkeit": 632, "einzelstaatlichen": 6152, "south": 5792, "Stellung": 3122, "Jan": 3114, "ken": 377, "administration": 2822, "eingegangen": 4645, "process": 1103, "keines": 7386, "tool": 5865, "Task": 6449, "Öffentlichkeit": 2831, "gestellt": 1640, "unt": 2089, "kolog": 4811, "lungs": 2743, "spe": 397, "Om": 5197, "lu": 935, "examine": 4987, "merksam": 2709, "beklagen": 7110, "Proble": 1588, "zweiten": 4062, "wirkungen": 2586, "seinem": 3210, "abkommen": 5329, "region": 2562, "fördern": 5538, "ritt": 2000, "asien": 6585, "artige": 6735, "Bestimmungen": 2594, "alt": 776, "Offen": 4787, "ionsfonds": 5973, "00": 371, "ilfe": 1656, "Lebensmittelsicherheit": 2939, "ebenso": 3743, "jenen": 6983, "werks": 7618, "candid": 5749, "serv": 1379, "enth": 2208, "waffen": 6876, "Leit": 1718, "ermöglichen": 5807, "Ple": 6439, "pract": 1787, "consen": 5909, "either": 3861, "übung": 6535, "UAL": 4133, "goes": 3523, "developing": 7882, "unfortunately": 5282, "nommen": 4819, "stop": 4193, "Schulung": 6273, "bis": 950, "chmal": 5270, "must": 355, "precisely": 3596, "real": 1533, "ot": 3649, "affen": 5744, "verstärken": 6271, "Zeitraum": 5460, "sour": 3175, "res": 182, "ziert": 7440, "abil": 2548, "itionen": 4259, "ilität": 4880, "fishing": 5757, "letzter": 5477, "standing": 4975, "unemployment": 4186, "themselves": 4303, "ins": 884, "Teil": 1800, "required": 3398, "attach": 6078, "igkeits": 6607, "anden": 6557, "getan": 2922, "intervention": 5419, "würde": 1595, "exist": 1541, "leist": 4199, "vorgesehen": 2899, "ffend": 4219, "EURO": 3784, "Gem": 1013, "leisten": 2371, "Ru": 4791, "its": 329, "thing": 631, "move": 2678, "openn": 5940, "Reihe": 4230, "verabschiedet": 7065, "hern": 5236, "Em": 1962, "grundsätzlich": 5618, "Stürme": 3823, "reich": 612, "ansa": 3475, "attra": 7486, "ho": 565, "geehr": 3677, "ld": 203, "Beg": 3509, "Verbindung": 7156, "though": 1912, "Ausschuß": 2011, "petenz": 5058, "spez": 3369, "Tibet": 2502, "gst": 3864, "ften": 1389, "Zug": 7343, "hungen": 1807, "findet": 2053, "zügig": 6971, "Rolle": 2270, "ined": 3309, "Zugang": 5485, "do": 289, "feel": 2160, "mitt": 3346, "zusammen": 2720, "Konz": 6796, "Ihren": 2964, "Subsid": 3577, "gestimmt": 3386, "half": 2779, "Entschließungs": 2494, "ention": 1686, "ency": 1683, "portugiesischen": 4676, "ures": 975, "staatliche": 2570, "kämpfung": 2259, "carry": 2937, "zweifel": 6110, "tragen": 1703, "Idee": 4726, "zur": 407, "being": 916, "stronger": 7731, "niemals": 6208, "vertrau": 6634, "wichtig": 1340, "Jeder": 7105, "Zu": 1048, "Gleichgewicht": 7942, "suggested": 5561, "Br": 2335, "rimin": 3140, "great": 1553, "ident": 237, "bewegen": 7517, "detail": 3805, "Tatsach": 3273, "erwäh": 3000, "ad": 270, "laid": 5924, "endeav": 6192, "Bemerkungen": 6318, "einen": 411, "eigene": 4664, "län": 2986, "separ": 5880, "satisf": 7073, "bom": 5745, "id": 172, "bure": 4425, "ison": 5818, "assistance": 3824, "transport": 1339, "schlägt": 5650, "ue": 362, "total": 4862, "please": 7008, "cho": 3152, "zweiter": 7441, "Ex": 2337, "Änder": 1598, "Betroffen": 6105, "Anderer": 7698, "ceed": 2554, "piel": 1211, "hoch": 6035, "repeat": 5606, "holz": 7954, "principle": 1560, "che": 479, "toler": 5306, "wohl": 1433, "Gree": 4119, "nissen": 3875, "Me": 2187, "growth": 6254, "Anwendung": 1926, "undermin": 5442, "ehm": 5041, "failure": 4694, "vom": 1303, "unte": 7483, "positive": 1637, "Herausforderung": 7162, "frei": 5449, "oman": 6591, "Lis": 7297, "doss": 6710, "Komm": 5717, "renationalisation": 6339, "Gründe": 7040, "unprecedented": 7224, "respect": 1870, "behandeln": 5854, "verfü": 2470, "nerin": 6848, "dated": 7359, "Unfälle": 6668, "deep": 5314, "19": 2264, "happ": 1458, "ical": 618, "ug": 473, "affected": 3261, "K": 35, "lin": 422, "Na": 2619, "neues": 6642, "ure": 446, "realise": 6904, "voraus": 5954, "exper": 1924, "wurf": 3207, "ify": 2777, "zial": 969, "Anlage": 6698, "unterstützt": 3558, "theless": 2461, "net": 1868, "weak": 6605, "icts": 6626, "1993": 5997, "befinden": 4479, "approxim": 6882, "GC": 7277, "alen": 2759, "af": 6455, "damit": 1511, "gave": 6137, "Cour": 3108, "leitet": 5042, "start": 2142, "Quest": 1673, "itions": 1818, "enor": 2648, "monitor": 2113, "Moment": 4783, "pekt": 5887, "moving": 6010, "Dah": 3441, "enfor": 2997, "Febr": 3787, "currently": 3786, "faced": 7712, "arch": 4474, "parliament": 3997, "prepared": 3433, "inzip": 2087, "flex": 4073, "Debat": 2172, "äumen": 4687, "lement": 3675, "CO": 4765, "Era": 4115, "strö": 6732, "Erachtens": 4397, "assen": 651, "anno": 5276, "m": 65, "imens": 2469, "How": 3622, "akzept": 2578, "stret": 7506, "fristig": 4369, "namely": 4727, "soll": 489, "Ir": 3113, "clar": 4802, "behörden": 5296, "presents": 6063, "ite": 648, "äft": 1112, "Aufgaben": 5461, "Welt": 3951, "ators": 5284, "Zeitplan": 7846, "State": 3039, "Gen": 1108, "gilt": 2198, "Erzeugung": 7746, "Wettbewerbsfähigkeit": 4992, "Treaty": 2182, "stick": 7508, "establishing": 5006, "ting": 1241, "fortun": 2217, "beihil": 4478, "achten": 3941, "T": 44, "dep": 4487, "schem": 3921, "Mittelpunkt": 7920, "ommen": 493, "fer": 2445, "cially": 1834, "terr": 5893, "tragten": 3760, "A5": 2508, "länder": 4159, "zudem": 5884, "adopt": 4623, "commitment": 3788, "scr": 4450, "worfen": 5395, "tausen": 5256, "daß": 202, "angeht": 6786, "Gest": 5181, "markets": 3833, "unserer": 1204, "Mitgliedstaaten": 735, "suc": 2474, "arding": 2143, "Belg": 5948, "implic": 5550, "Dal": 4109, "incident": 7785, "Sy": 1261, "keine": 990, "systeme": 7835, "proposes": 7815, "putting": 5482, "Red": 4419, "gleichzeitig": 5470, "both": 2003, "oblig": 3046, "isl": 804, "ystem": 561, "bzw": 2975, "Schroedter": 2263, "produce": 4044, "gerung": 4553, "Pre": 4788, "stat": 1650, "Sicherheits": 3839, "krä": 6492, "ßer": 1396, "There": 850, "Verkehrs": 3814, "transpar": 1380, "heute": 1308, "Mitentscheid": 5405, "subsidiar": 3583, "haus": 7376, "Vergangen": 3708, "secut": 2285, "debatt": 6076, "ly": 159, "ech": 2631, "60": 7250, "prozeß": 2148, "stre": 5290, "priority": 3573, "hängt": 5000, "Aspekten": 6947, "tätig": 5119, "allein": 3985, "keln": 4323, "einschließlich": 7540, "portugies": 2722, "obliegt": 6755, "Funktion": 4118, "glaube": 2258, "tedly": 5987, "structure": 3240, "Te": 5729, "Stand": 2161, "how": 1210, "Aus": 357, "Ge": 490, "sei": 2545, "Tatsache": 3602, "komm": 1039, "derer": 6575, "bur": 3294, "resign": 5914, "Sicht": 2623, "sta": 370, "gesetz": 3949, "couple": 5662, "agenda": 1953, "compre": 3512, "fal": 3642, "div": 5753, "condu": 3340, "dungs": 5225, "anzös": 5447, "verl": 2377, "gar": 1608, "app": 1107, "milit": 6502, "presented": 3995, "Inter": 1079, "Wahr": 5064, "derart": 2369, "If": 1606, "grün": 3182, ".": 10, "Gol": 2839, "consult": 3741, "Beitrittskandidaten": 7207, "demonstr": 3356, "Sor": 2727, "berücksichtigen": 3801, "gleichen": 3752, "klär": 1189, "tet": 868, "Gesellschaft": 4380, "einiges": 6596, "lick": 1937, "ough": 1092, "specifically": 5021, "Einsch": 5425, "schätz": 7564, "wish": 1423, "erring": 5384, "nehmen": 721, "kungen": 6491, "ox": 5780, "beant": 3013, "verbind": 5334, "jahr": 4325, "regionen": 7713, "Bürgerbeauftragten": 5002, "ested": 5275, "negotiations": 2951, "Güter": 4708, "chtens": 4184, "ktion": 928, "chang": 5813, "weise": 1045, "under": 655, "iner": 6547, "pop": 4892, "name": 3876, "sche": 848, "riften": 1438, "Flor": 7061, "heim": 4506, "imes": 2873, "hö": 1720, "kre": 1810, "tre": 590, "respon": 780, "bereich": 5443, "bourg": 7176, "consumer": 5076, "befug": 5297, "städ": 5842, "pass": 1610, "Handeln": 7144, "Vorhaben": 6748, "Zert": 5742, "recognise": 3426, "designed": 7131, "bedeutet": 3421, "Eastern": 6963, "crimes": 6812, "unpre": 6560, "ister": 1034, "ff": 192, "distribution": 6321, "infrastructure": 7220, "weder": 4495, "agement": 1434, "bes": 382, "rgy": 7410, "einander": 3166, "events": 3999, "überhaupt": 4541, "num": 1490, "fle": 2738, "Über": 854, "statement": 2599, "machen": 1596, "Fragestunde": 5679, "Punkte": 2825, "interpretation": 7103, "schluß": 3922, "Überein": 4005, "gefühl": 4718, "außerdem": 5543, "Grenzen": 4695, "itself": 2460, "uss": 671, "Beförder": 6687, "enable": 5804, "üblich": 7448, "hand": 934, "ph": 4447, "Genau": 5491, "gesehen": 2064, "Debatte": 2184, "Arti": 1878, "went": 4832, "goods": 2394, "Denmark": 3245, "Tro": 5731, "Verteilung": 7658, "ivid": 2674, "prerequis": 6013, "Vo": 6450, "Gleichzeitig": 3773, "beding": 1865, "cke": 7351, "needs": 1934, "Israeli": 4596, "Hilfe": 2338, "compet": 585, "ade": 1802, "4": 16, "discrimin": 4556, "introduced": 6163, "Tad": 7324, "exp": 3351, "Verhand": 2773, "idakis": 7382, "rate": 4448, "taken": 1288, "haven": 5916, "Entwick": 1118, "ennt": 3471, "dealing": 5529, "Tagesordnung": 1849, "ansp": 524, "erma": 7452, "sof": 3141, "wants": 6093, "kten": 1609, "wissenschaftlichen": 5092, "wat": 6528, "ateful": 6669, "row": 2212, "immt": 1547, "Firstly": 3086, "udge": 7863, "global": 2957, "geschlossen": 2008, "manager": 7084, "gefü": 3676, "gos": 7758, "unmittel": 5281, "instream": 3374, "L": 36, "öst": 4459, "sym": 3099, "Schwier": 3725, "Anspruch": 5378, "Ö": 80, "viele": 1710, "80": 2185, "ika": 1587, "Leistung": 7136, "versuchen": 5335, "renew": 6168, "reply": 5621, "iz": 568, "useful": 5513, "schre": 3688, "auer": 3680, "sam": 506, "lossen": 1316, "verwendet": 7592, "Allow": 6888, "tats": 4171, "55": 7248, "Beispiel": 2102, "heben": 4872, "wide": 5317, "hät": 2350, "report": 412, "blicken": 7216, "bek": 4475, "pressure": 6019, "Pol": 3633, "parts": 5455, "com": 261, "Procedure": 5165, "Experts": 6290, "012": 7238, "heav": 7575, "completely": 5589, "interim": 6017, "ell": 3859, "Gemein": 4012, "implications": 6367, "zen": 1529, "conclude": 7055, "more": 571, "attitude": 5680, "kund": 6489, "Ano": 7259, "Rap": 2437, "früheren": 7098, "kleare": 6984, "refugees": 4742, "B": 26, "solcher": 7812, "thank": 1305, "By": 5697, "Bedürf": 7980, "consist": 5438, "cer": 933, "ross": 4852, "erreichte": 7464, "ritte": 2300, "neh": 592, "referring": 6085, "direkt": 7869, "po": 224, "bemüht": 7111, "viel": 938, "hy": 7372, "sight": 6516, "Einw": 4267, "gesellschaft": 4027, "Unions": 7650, "gr": 256, "w": 75, "iven": 921, "sterdam": 3080, "trolle": 947, "companies": 2061, "Gebietsk": 6901, "enthalten": 3094, "dänischen": 6352, "facts": 5462, "zehn": 4917, "governing": 5503, "contrib": 2150, "marks": 6776, "analysis": 4379, "Den": 1602, "ritten": 4269, "absol": 2287, "six": 2851, "gestattet": 6854, "keinen": 3134, "concerning": 3378, "zeichnet": 4639, "klärt": 7916, "worden": 1334, "heißt": 3490, "erklären": 6226, "chanis": 4074, "swi": 5788, "zunächst": 2529, "rel": 715, "our": 241, "gaben": 2197, "Form": 3748, "Rede": 5358, "57": 7249, "fortunately": 2607, "justified": 6042, "factory": 5463, "allgemeinen": 5105, "zukommen": 6618, "Juli": 7210, "zweite": 5052, "igungen": 5878, "ih": 378, "dern": 437, "weiterer": 7874, "DAC": 4773, "Initiativen": 5555, "kontrolliert": 6966, "affairs": 3780, "democracy": 6363, "regret": 5390, "word": 5394, "legung": 5403, "Wet": 611, "ful": 1298, "bürokrat": 6462, "weeks": 4681, "territory": 7115, "Gedächt": 7071, "construction": 6300, "antien": 6697, "acher": 6656, "Möglichkeiten": 4643, "Sichtver": 7002, "positions": 6878, "three": 2457, "aim": 2974, "level": 1372, "wider": 4489, "vorschriften": 2596, "Be": 248, "ability": 1228, "gesche": 4525, "Nachdruck": 5493, "Stel": 6444, "stehenden": 4999, "orteur": 1477, "Koch": 2724, "heren": 4555, "cons": 596, "fund": 1859, "ited": 1577, "Dieser": 2111, "bestimmten": 7005, "spra": 1248, "jeweiligen": 4731, "pest": 5251, "reichte": 6805, "Sh": 7315, "geehrte": 5101, "What": 1483, "Insel": 6675, "Mindest": 6434, "viour": 6241, "ben": 263, "richtige": 3758, "different": 2955, "remains": 6310, "spielt": 5927, "anhand": 7480, "Vorgehen": 4933, "regulatory": 7915, "er": 87, "komme": 6097, "Ausbildung": 5108, "Tag": 7325, "idency": 1709, "lediglich": 4028, "aga": 878, "isch": 184, "weapons": 3434, "You": 2193, "att": 838, "Kenntnis": 5118, "Mrs": 930, "nör": 7398, "]": 52, "folgendes": 5546, "schließlich": 2690, "Stör": 7723, "un": 95, "isierung": 1531, "session": 5646, "conclus": 2573, "Unternehmen": 1508, "nehmern": 7035, "pers": 3726, "EURODAC": 5111, "08": 5683, "geschaffen": 6068, "Minuten": 6107, "Frauen": 4968, "erik": 6540, "angekünd": 6026, "Haushaltslinie": 5525, "Artic": 2323, "Ener": 4407, "opport": 2153, "Wasser": 4716, "changed": 6885, "ur": 125, "vise": 6525, "ilt": 1763, "enforce": 7450, "essential": 1661, "Dez": 4293, "constru": 4214, "passed": 4637, "ef": 1297, "Regelwerk": 6880, "bind": 2514, "congratul": 2472, "zungen": 4835, "burg": 5087, "künftigen": 7137, "eben": 653, "deutschen": 6825, "R": 42, "palästinensischen": 5128, "TÜV": 7215, "och": 638, "Mitarbeit": 3968, "Pak": 7310, "essen": 1862, "schütz": 7562, "asyl": 3164, "vol": 2456, "yed": 6530, "messen": 3873, "G": 31, "formen": 2544, "To": 2131, "hilfe": 5762, "onen": 5273, "abgegeben": 7579, "Gr": 630, "appropriate": 2609, "erhalten": 2753, "Prozeß": 3366, "gehalten": 7525, "deserve": 6313, "walt": 1195, "economy": 2409, "Bevor": 7681, "konzentr": 4563, "vorgesch": 3034, "AI": 6402, "according": 6220, "envisaged": 6251, "Material": 5195, "log": 4242, "Auf": 811, "doppel": 5227, "Paper": 1752, "United": 2890, "ning": 3874, "zie": 818, "abgereichertem": 7155, "vorliegen": 2103, "Rand": 4418, "internal": 1704, "AF": 2020, "Beginn": 4097, "ielt": 3519, "Reformen": 2893, "gestaltet": 5468, "I": 33, "immigrants": 6267, "finan": 4931, "create": 3781, "undant": 6602, "ix": 1808, "ime": 1537, "Akteure": 7262, "Kap": 2841, "fac": 7711, "Barcelon": 7953, "Party": 5376, "abgebaut": 7582, "longer": 3428, "oppel": 4720, "Lynne": 7174, "stärk": 5518, "give": 1155, "Plen": 4055, "Dann": 4110, "guidelines": 1713, "force": 2216, "closely": 6239, "Hänsch": 6372, "introduce": 3084, "äußerster": 7000, "result": 1988, "scrutiny": 6343, "amounts": 7164, "ander": 681, "gleiche": 5469, "ack": 1753, "reassure": 7848, "chines": 6550, "bringing": 6986, "Präsident": 416, "Kritik": 6236, "work": 668, "Syria": 3097, "zt": 5260, "beef": 5851, "Problem": 1354, "Stunden": 6723, "ill": 574, "Bereich": 983, "built": 5535, "ate": 222, "maß": 4535, "Inst": 1873, "morgen": 2477, "begrüßt": 6911, "hl": 527, "hard": 3869, "Organe": 7029, "rad": 3493, "angewand": 6788, "reag": 5834, "schne": 2219, "im": 137, "Jahrtausen": 7895, "Worte": 5739, "agre": 841, "ungsprozeß": 7720, "cou": 4801, "Hatz": 7282, "hul": 7375, "laps": 6662, "sper": 7638, "tern": 1824, "stake": 6744, "schritt": 7565, "Millionen": 5634, "ldungen": 4887, "capital": 3243, "Ort": 4635, "lie": 245, "efficiency": 4144, "ordnungsgemäße": 6320, "entlich": 1163, "published": 5115, "build": 7044, "those": 1160, "short": 3188, "supporting": 7866, "month": 1887, "sordnung": 3466, "integr": 2857, "Führ": 6419, "Brie": 5698, "sup": 782, "competit": 2797, "brief": 3736, "grundlegen": 4646, "Lu": 4780, "drück": 3544, "notwendige": 5532, "ars": 5291, "wird": 334, "lines": 1465, "gewährt": 5562, "emphas": 3061, "riesige": 5625, "Har": 4410, "focus": 4092, "olz": 3177, "unanim": 6564, "Y": 49, "ausgezeichneten": 7160, "ür": 176, "Conference": 3435, "uture": 1455, "reasons": 4647, "zerr": 6532, "jen": 2449, "aben": 335, "Gespräche": 5003, "uman": 2290, "plenary": 6055, "Leg": 3763, "leis": 3163, "Frei": 1963, "Ein": 474, "Program": 1088, "ask": 899, "Kyo": 5720, "zerstör": 5663, "Jordan": 5716, "lauf": 2084, "impose": 6613, "gelegten": 4039, "som": 3884, "complete": 2949, "class": 2733, "lom": 5770, "accur": 6745, "sure": 871, "Ant": 1829, "bie": 1175, "kommens": 4989, "letz": 917, "erklärt": 5074, "top": 3915, "ihrem": 3751, "Weiter": 4234, "supported": 4365, "keits": 4212, "Mangel": 6348, "past": 2355, "safegu": 4740, "acting": 6817, "him": 2349, "Bericht": 366, "buil": 3411, "ily": 2448, "geschehen": 5653, "Ratspräsident": 3055, "zählen": 7075, "decide": 3745, "recognis": 5031, "Bedeutung": 1749, "Sich": 966, "Euro": 190, "heutigen": 5622, "illust": 6038, "frequ": 6057, "zumindest": 4575, "Ur": 2728, "beschränken": 7028, "rieben": 4997, "initi": 1448, "vielleicht": 3549, "äumt": 7016, "ift": 3645, "dle": 2734, "Beschäftigung": 3799, "Politiker": 7973, "iv": 312, "willigen": 6685, "begrüßen": 3783, "Regulation": 4570, "Art": 1505, "transportation": 6120, "reiter": 7499, "untersuchen": 7766, "Vol": 4796, "Apr": 5691, "itra": 7487, "ination": 3899, "etary": 3939, "führten": 6049, "Herzen": 5576, "Haushaltskontrolle": 7971, "igern": 7556, "treat": 3212, "Hauses": 4301, "uer": 1158, "gelegt": 2125, "ore": 1398, "crisis": 4704, "völlig": 3259, "Medien": 6295, "better": 2683, "pal": 3878, "effe": 787, "ising": 1913, "Hinweise": 6122, "ö": 84, "Frankreich": 2959, "Risiko": 7046, "ult": 512, "until": 4056, "ierenden": 3050, "Sektor": 6818, "eil": 1263, "dru": 2005, "aufhören": 7629, "81": 2962, "blo": 3636, "Dam": 2432, "ory": 1532, "persön": 5107, "jüng": 4098, "frü": 4275, "ird": 2099, "example": 1383, "85": 7253, "Let": 2968, "10": 2506, "Gemeinschaftsrecht": 6968, "power": 2228, "subordin": 7851, "see": 992, "cause": 967, "appe": 2296, "administrative": 3408, "eng": 1447, "Frau": 620, "Widerspruch": 6329, "raft": 2288, "Justiz": 3251, "igflag": 7558, "appro": 1232, "seriously": 5545, "decided": 5109, "Mitglie": 608, "honest": 6190, "europä": 2575, "meeting": 3249, "mittleren": 7204, "unde": 1761, "onds": 1449, "Public": 2436, "following": 3082, "does": 1231, "gig": 4438, "employ": 1148, "by": 315, "sphase": 7642, "worthwhile": 7039, "durchzu": 7807, "ität": 805, "located": 7702, "Kontrolle": 1669, "Sturm": 5666, "pl": 686, "iegel": 7491, "existing": 2818, "sinn": 4169, "undenen": 7484, "folge": 4978, "hof": 1300, "übr": 2852, "migr": 5775, "Spek": 7126, "nego": 2221, "ftige": 7643, "betreffend": 5585, "Kampf": 7171, "iver": 4150, "verweist": 7591, "Richtung": 3764, "agreement": 1381, "addressed": 5085, "obligation": 5596, "Fo": 5176, "comple": 2104, "XVIII": 5740, "vor": 257, "ission": 7572, "ag": 320, "ichert": 5837, "Öff": 2646, "rop": 1073, "ischem": 7622, "ischen": 262, "Generaldirektion": 5112, "pra": 1192, "dnung": 5226, "daher": 1985, "representatives": 4338, "troffen": 1993, "technical": 3574, "pli": 7403, "Comm": 740, "künft": 5016, "schemes": 7081, "cies": 3639, "suchen": 2556, "weisen": 1822, "reports": 2239, "schung": 6615, "ely": 6472, "Anforderungen": 3960, "ungen": 236, "dann": 987, "zufolge": 7570, "road": 3319, "perhaps": 5984, "Klima": 7145, "Süd": 7107, "atul": 2141, "fä": 773, "warten": 7748, "Stelle": 7214, "ffen": 576, "Transp": 1413, "Infra": 6676, "makes": 3514, "statements": 6998, "davon": 1694, "Entsch": 4560, "staat": 458, "[PAD]": 0, "flicht": 3131, "forest": 2468, "willkommen": 7680, "standards": 2580, "Man": 2076, "beschlossen": 4609, "ön": 452, "vic": 4173, "Pl": 2078, "Instead": 7667, "Waffen": 4069, "sess": 4449, "mittag": 5362, "gelt": 4482, "internationaler": 6945, "ional": 675, "setzung": 1037, "Min": 1152, "mentioned": 2066, "rei": 1101, "lagen": 1500, "freue": 4587, "Futter": 4777, "ordan": 5404, "angs": 6045, "übertragen": 4913, "ume": 6655, "instrument": 2140, "iod": 1902, "speak": 2393, "außerordentlich": 4383, "omes": 5866, "market": 931, "1994": 5998, "wär": 2911, "Klassifizierungsgesellschaften": 5643, "unge": 5280, "dam": 801, "repa": 7495, "motion": 2789, "heraus": 3734, "wenden": 4942, "Öl": 3894, "ischer": 1457, "team": 7542, "Entschließungsantrag": 4669, "aus": 239, "Fra": 454, "schenken": 7884, "festgestellt": 5497, "Pos": 4789, "it": 97, "sterreich": 7968, "ul": 209, "remain": 3670, "meldungen": 5929, "Sweden": 7322, "Information": 2294, "out": 348, "gutes": 6123, "finding": 6156, "who": 745, "bericht": 4516, "within": 1009, "verfolgt": 6636, "müssen": 440, "Und": 1622, "Die": 286, "Abschaff": 6004, "Präsidenten": 4937, "seen": 2872, "Gerechtigkeit": 4385, "nment": 4445, "immungen": 2237, "hervorgeht": 6976, "wür": 1099, "Haushaltsordnung": 5524, "87": 7254, "exc": 2898, "ihren": 2200, "quir": 6705, "noon": 6641, "relates": 3993, "Handlungs": 6988, "beg": 1245, "amtierenden": 6171, "beziehen": 3014, ")": 7, "lehnen": 6228, "akzep": 4973, "leave": 7078, "grow": 3211, "ous": 471, "codecision": 5389, "Vorschlag": 1090, "talk": 6138, "experience": 5029, "ausgesetzt": 7672, "jegliche": 6751, "Dezentral": 7862, "Arbeits": 1740, "derzeit": 2282, "ome": 508, "parlamentar": 6067, "posed": 3042, "umzusetzen": 5636, "vy": 6524, "Ernen": 7744, "Sp": 3855, "Stra": 1832, "fäh": 3058, "rect": 3479, "scheid": 1473, "ikistan": 4926, "oft": 3679, "Kollege": 2926, "Einschränkung": 7159, "study": 7226, "accept": 1317, "purpose": 4070, "restr": 2883, "SE": 3120, "peten": 2550, "Haushalt": 3400, "gument": 3644, "Ende": 2598, "isted": 7476, "subsidiarity": 3835, "geograph": 6587, "gesamte": 4368, "ince": 1282, "public": 1126, "schließen": 4979, "gives": 5233, "consultation": 6276, "nä": 5247, "Zweit": 2844, "appar": 6711, "organ": 1648, "verpf": 4874, "iron": 1429, "take": 783, "Parliament": 438, "Kontrollen": 2913, "wel": 856, "Indust": 7066, "fa": 310, "someone": 7809, "died": 5874, "announced": 6355, "Programmen": 5486, "nationalen": 1591, "Deutschland": 5151, "Mitglied": 676, "eria": 4460, "ü": 85, "secondly": 6944, "expect": 2669, "vie": 738, "lassifizierungs": 4038, "Ha": 1797, "wesen": 3766, "board": 2166, "initial": 6384, "However": 1343, "Sol": 2341, "Pro": 350, "participation": 6305, "Kommissionsmitglieder": 5047, "Finanzierung": 6891, "keep": 3930, "difference": 6089, "einzel": 1687, "spol": 3703, "Tajikistan": 7928, "son": 743, "beantragt": 7021, "wishes": 3556, "Barn": 2938, "ufact": 5796, "Lebensmittelbehörde": 4328, "rich": 6511, "institutional": 4629, "So": 643, "klar": 1157, "dürfen": 2499, "Director": 3804, "fficiency": 4029, "ighted": 6219, "news": 6071, "Mann": 7303, "ladies": 5351, "erster": 6795, "hung": 4147, "gesellschaften": 4315, "undes": 6601, "muß": 476, "simp": 3654, "Beacht": 7684, "Objective": 5667, "every": 1367, "Arbeitnehmern": 7864, "happening": 6969, "eigentlich": 4670, "West": 7334, "stren": 5402, "ods": 2032, "Mo": 2618, "Don": 5700, "inspection": 4348, "denkt": 4490, "2002": 4051, "vorrang": 5957, "og": 705, "Selbst": 5144, "Ausübung": 7743, "ät": 523, "Agriculture": 7261, "culture": 3424, "fr": 594, "befaßt": 6578, "onnen": 4843, "explain": 5637, "enn": 1007, "intervent": 7780, "ethn": 5580, "Fischere": 5179, "arbeiteten": 7828, "Detail": 5153, "cooperation": 2159, "teilen": 2482, "safety": 1183, "optim": 2896, "mem": 6499, "Dienst": 4067, "ino": 2530, "may": 1289, "ra": 151, "Landwirtschaft": 4634, "ider": 637, "deter": 4864, "Ferner": 6326, "Bes": 2336, "obliged": 7191, "Ausschüsse": 7906, "enter": 6581, "schwerwie": 5554, "cut": 1523, "spezif": 6264, "desired": 6674, "econom": 904, "ßnahmen": 1019, "gedenkt": 5863, "iechen": 5830, "Gover": 4409, "testing": 6284, "privilege": 7163, "angesichts": 3395, "trans": 2100, "gerecht": 3778, "vollen": 6771, "Praxis": 5644, "Os": 6437, "vo": 464, "restruct": 7012, "erfüllt": 6252, "petition": 3534, "observations": 7054, "erwähnten": 7219, "eingebracht": 5869, "measures": 1675, "ancho": 6558, ").": 5167, "Überzeugung": 7867, "Ganz": 5709, "ergreifen": 5267, "rema": 4470, "gie": 3299, "anwesend": 5158, "iellen": 2533, "selbstverständlich": 5009, "schlag": 4502, "kle": 2450, "Hinsicht": 3774, "regards": 4247, "Mitgliedstaat": 4583, "Hier": 1604, "Beitrit": 4655, "resol": 1199, "große": 2479, "Chinese": 5071, "transfer": 5549, "Pr": 2339, "Sach": 1566, "ouch": 5325, "Befra": 6686, "budget": 2080, "jeden": 2677, "Kolle": 843, "difficulties": 3571, "Hä": 4778, "lö": 3300, "supposed": 6839, "increase": 3237, "Danish": 5086, "llent": 3018, "shof": 3187, "effektiv": 6841, "flikt": 4390, "weis": 3020, "Grundlage": 2415, "igt": 906, "Veränder": 3027, "Protection": 7734, "dienen": 3594, "cur": 762, "Kommissions": 2050, "Last": 3853, "While": 5494, "kunft": 2183, "Berat": 6722, "thern": 5816, "find": 1755, "wners": 6877, "priorities": 4650, "leich": 607, "unkt": 591, "heit": 380, "plann": 4281, "tag": 3178, "uter": 7422, "Lie": 5190, "velop": 891, "Syri": 2413, "etwa": 4221, "Gebiet": 2701, "alth": 3671, "diskut": 3528, "ust": 219, "Grundsatz": 3431, "les": 2525, "zugelassen": 6621, "holders": 7955, "verständ": 1984, "Ermitt": 7745, "strukt": 5471, "vote": 1357, "gelangen": 6029, "Ak": 7257, "while": 2884, "1992": 7755, "itzen": 6567, "zo": 2138, "list": 4158, "herr": 5235, "gebie": 6064, "hervor": 2395, "ums": 2886, "ftung": 4223, "remember": 5007, "präche": 3813, "Verlauf": 7657, "Treffen": 6136, "Mill": 4124, "Se": 708, "withdrawn": 7679, "Beweis": 7685, "rechts": 4060, "igh": 2657, "entsprechend": 5673, "entgegen": 6582, "sagen": 1024, "colle": 2515, "amend": 1213, "ipo": 6485, "halb": 829, "inv": 1050, "acio": 2784, "Stud": 7724, "wit": 5798, "Zweitens": 2961, "instance": 5439, "police": 4273, "tschaft": 583, "ences": 4839, "left": 5302, "quality": 2592, "des": 229, "zentr": 3145, "exchanges": 7686, "ople": 910, "deb": 826, "erfolgreich": 6298, "ort": 185, "boten": 6051, "kommen": 698, "Kommun": 7170, "calls": 7996, "ändert": 4296, "Angaben": 6701, "12": 1415, "await": 5212, "challenge": 7093, "maximum": 7694, "neue": 1540, "genommen": 1918, "wirtschaftlichen": 2804, "entral": 1038, "mous": 5246, "utin": 4515, "95": 7256, "Kol": 1751, "Darin": 6981, "OLAF": 2126, "ological": 2940, "has": 290, "demonstrate": 5611, "profess": 3589, "analys": 3430, "Yes": 7339, "activities": 4378, "warn": 5408, "urs": 3017, "Wach": 6452, "kraft": 4812, "speaking": 6754, "setzungen": 4962, "industrial": 6872, "ago": 3193, "Probleme": 1892, "arbeiten": 1944, "überzeug": 5972, "tech": 1580, "ationalisierung": 6018, "pub": 2749, "Beamten": 5059, "pf": 936, "sensible": 5928, "öffentlich": 5514, "GDP": 6345, "Koordinierung": 5656, "yes": 5800, "beabsicht": 4855, "miß": 7394, "Erklärung": 2710, "qu": 272, "ant": 268, "isten": 1061, "ions": 291, "ktur": 1166, "cases": 2693, "resolve": 6112, "sequenz": 6184, "effektive": 7121, "Behandlung": 6689, "ctural": 2552, "ühren": 5263, "legisl": 980, "aware": 2503, "wach": 1304, "this": 189, "unächst": 1495, "schiede": 3092, "hohen": 5434, "ras": 4824, "recall": 7963, "Cur": 6409, "honour": 2826, "Ungleich": 5930, "Haltung": 5185, "2": 14, "Damen": 3111, "merely": 6330, "ifel": 2902, "hatte": 2561, "Gesch": 2434, "things": 2002, "möglichen": 3520, "come": 840, "stated": 4850, "Unabhängiger": 7083, "verzerr": 7594, "production": 5523, "zusagen": 7568, "baren": 6845, "difficult": 1890, "HO": 7280, "disparities": 3613, "contain": 2769, "ored": 6569, "wing": 7428, "issu": 7571, "besitzen": 7752, "multinational": 6240, "deral": 4195, "ified": 2673, "minim": 6820, "relating": 3543, "spolit": 4386, "Po": 2621, "getr": 7523, "ieden": 756, "frist": 2914, "ink": 877, "behörde": 2654, "Generaldire": 3785, "Moreover": 6376, "letzt": 5476, "ular": 839, "abstimmen": 7581, "Hau": 3621, "ihrer": 1672, "30": 3280, "sehen": 1654, "capacity": 4394, "transparent": 3776, "dra": 1153, "einmal": 1915, "rig": 3880, "Kir": 7292, "delay": 5315, "storms": 2948, "Eing": 5702, "poll": 5932, "insgesamt": 5474, "Viel": 4134, "Veränderungen": 4080, "earlier": 4966, "endgü": 5368, "bewe": 6576, "regime": 7714, "ächst": 1474, "outcome": 7732, "Nein": 7307, "objective": 3567, "ließ": 673, "Gip": 5182, "durchgeführt": 3740, "leicht": 2091, "ide": 505, "ket": 807, "heard": 3690, "Central": 5699, "lament": 418, "proced": 1920, "nt": 372, "EC": 2836, "ong": 769, "exchange": 4902, "Wä": 2132, "geord": 887, "wirken": 4210, "ield": 2756, "other": 647, "geht": 825, "sorgfä": 5657, "effizient": 5756, "fordern": 2658, "countries": 1091, "juris": 7108, "precise": 2707, "quo": 5381, "vi": 2995, "Wogau": 2428, "refle": 6084, "ier": 194, "ös": 2207, "concil": 7794, "ausreichend": 3948, "Evans": 4389, "impress": 3687, "behalten": 6577, "authorities": 1947, "Anstreng": 4908, "implemented": 2410, "erlassen": 7456, "kl": 4151, "Berichte": 4249, "37": 4755, "confir": 4305, "citiz": 1525, "with": 243, "uge": 2358, "responsibility": 1634, "substant": 6072, "Pe": 3118, ",": 8, "down": 2158, "erteilt": 6545, "ip": 514, "lau": 1191, "sch": 139, "fünf": 3368, "Le": 1190, "Affairs": 3836, "sim": 4827, "ama": 3019, "vorliegende": 6951, "llow": 1497, "itely": 6048, "considered": 4290, "Höhe": 6294, "Herren": 2903, "bound": 6813, "Best": 1516, "lück": 2202, "organisation": 4043, "rior": 3069, "moved": 7772, "evening": 6909, "prove": 2222, "Harmonisierung": 4746, "ven": 1723, "bereits": 1187, "lag": 683, "visible": 7891, "colleague": 6257, "Informations": 5135, "inn": 1084, "Bundes": 7266, "obviously": 4684, "millennium": 6380, "einb": 7536, "Commissioners": 3945, "fundamental": 5026, "Wise": 5736, "geprüft": 7530, "CEN": 6282, "antwort": 929, "ausdrück": 5938, "zählt": 7076, "USA": 7089, "Conserv": 7930, "ual": 1909, "Patten": 2622, "Eindruck": 4725, "kelt": 7606, "Sta": 831, "way": 670, "La": 5189, "igen": 308, "risks": 4332, "Washing": 7975, "om": 115, "conduct": 4090, "igung": 1286, "large": 1743, "true": 2771, "lemen": 4481, "important": 771, "week": 5075, "Arbeitslosigkeit": 5531, "bol": 5215, "Erstens": 3198, "se": 136, "bung": 4137, "Bürgern": 4020, "fol": 763, "trau": 1922, "fähr": 2486, "hing": 6479, "Prior": 3119, "zufr": 4869, "pursu": 6216, "Ma": 883, "beschränkt": 6246, "Gebiete": 4327, "weltweit": 4026, "mann": 3302, "lar": 678, "Ahern": 5696, "ßt": 1395, "PPE": 3605, "Sk": 5727, "obli": 6001, "zwe": 1178, "dem": 264, "hau": 2636, "Stad": 7859, "Kon": 567, "Cohesion": 6792, "eingesch": 3916, "spending": 3942, "eas": 4805, "geworden": 4860, "aufgrund": 4886, "involve": 5534, "bedeuten": 6198, "hinge": 3978, "Vorsitzen": 7754, "teil": 644, "Einführung": 4949, "Bestandteil": 6317, "Ombudsman": 5671, "thous": 6553, "Heute": 5547, "Richtlinie": 2012, "Fort": 2509, "Tat": 5730, "würden": 4306, "Wahl": 4135, "iben": 2522, "transactions": 6312, "behindern": 7518, "formation": 1168, "marke": 3531, "mention": 1460, "tz": 281, "improve": 2286, "Turkey": 4376, "Vorschlägen": 7821, "introdu": 1852, "kop": 7385, "joint": 3812, "forum": 6608, "last": 821, "wesent": 3399, "legal": 1080, "oral": 4468, "chinesischen": 7221, "tritt": 6661, "unternommen": 6008, "ör": 405, "Helsinki": 6373, "sel": 501, "underlying": 7820, "Schaffung": 2613, "similar": 6332, "scient": 3232, "Einige": 4268, "Flagge": 6293, "Seiten": 7981, "gegangen": 6586, "excess": 6691, "ocr": 2991, "bot": 2403, "Res": 2843, "comprehen": 3832, "bess": 1094, "agraph": 4248, "mind": 2353, "best": 951, "draft": 3393, "Bezie": 3348, "times": 6024, "spartner": 7189, "ped": 6510, "connection": 5121, "edu": 5319, "gespiel": 7674, "ehrgeiz": 7951, "ker": 1972, "Binnenmarkt": 1895, "über": 282, "fällig": 3545, "räumen": 6272, "min": 709, "Haushal": 1257, "Brief": 7168, "ss": 1612, "charter": 6285, "ersuchen": 7460, "works": 5444, "resear": 4883, "changing": 6385, "Behinder": 5945, "pped": 7819, "Aller": 3769, "Friedens": 2067, "lang": 2744, "andere": 2307, "hätte": 3588, "Schließ": 3197, "speaker": 5054, "secutor": 2504, "stru": 879, "ähr": 5801, "really": 2651, "sen": 216, "managers": 6288, "ibilität": 6714, "vorsch": 1542, "tatsächlich": 4734, "Rat": 697, "führungen": 4581, "Fa": 6415, "Bill": 7265, "ec": 3297, "absolutely": 4088, "Men": 1151, "israel": 4466, "abhän": 1823, "sums": 6520, "ausger": 7670, "disast": 1254, "between": 932, "Ölpest": 7077, "mismanagement": 5051, "Sri": 7320, "application": 3090, "bald": 3239, "indire": 5356, "Or": 1564, "iter": 3316, "aspects": 4666, "groß": 3535, "erarbeitet": 5268, "legenheit": 1842, "Part": 5959, "mehreren": 4972, "conference": 6099, "operational": 7872, "Informationen": 2828, "Seit": 1799, "issen": 942, "cla": 4429, "Vorrang": 7753, "ierung": 707, "e": 57, "interests": 2597, "wiederum": 7888, "mals": 2451, "scept": 6518, "Prü": 3291, "welchen": 6080, "fällt": 4287, "bour": 5747, "europäischer": 3593, "Fällen": 6225, "anischen": 5277, "keit": 383, "leg": 347, "Unabhäng": 3946, "issions": 7573, "curity": 1633, "gegenwärt": 3994, "ktiv": 2292, "That": 961, "date": 3128, "elect": 6917, "Modernisierung": 4395, "advice": 3591, "sprech": 4304, "soon": 3334, "the": 100, "Ausdruck": 2906, "erequis": 5900, "mechanis": 4890, "offensichtlich": 5540, "single": 2128, "dialog": 3457, "weshalb": 6884, "ships": 2591, "programme": 1510, "ication": 3173, "währ": 1256, "abgeben": 6622, "auswirken": 6683, "Kosovo": 2333, "Kom": 2966, "Auff": 3738, "erwähnen": 7018, "verändert": 7593, "ced": 751, "erneut": 5599, "along": 4472, "pfung": 2118, "erh": 6537, "Empfehl": 2958, "sobald": 7597, "Folgen": 4347, "combating": 4534, "Deshalb": 1790, "Katastrophen": 4049, "solutions": 6046, "Summit": 5635, "forderungen": 3220, "litt": 2031, "AL": 4106, "utzung": 6101, "Beteiligung": 7118, "resum": 5347, "lass": 1527, "vertheless": 3174, "forderung": 4288, "sufficient": 2894, "sels": 2791, "alle": 553, "Vergemeinschaft": 5935, "regulation": 3070, "tent": 2454, "ecological": 3606, "projects": 2944, "Februar": 6280, "uth": 7421, "Effiz": 3847, "ebenfalls": 2685, "uine": 7424, "Unterstützung": 1853, "Renationalisierung": 6349, "given": 1970, "gis": 7369, "today": 1536, "ifellos": 5677, "thorough": 6830, "brit": 4945, "Kouch": 5722, "Eisen": 3846, "Jul": 6430, "darin": 2787, "destru": 7091, "Ho": 1172, "unsere": 1375, "strong": 3517, "Revision": 7661, "ically": 2765, "individual": 3817, "ound": 5781, "hull": 7379, "Kr": 2186, "llschaft": 2465, "Ausgleich": 7738, "übrigen": 3270, "s": 71, "zugunsten": 7899, "8": 20, "Ihnen": 1205, "Fraktion": 1356, "dom": 5223, "invest": 2252, "cal": 2272, "ieties": 5831, "often": 3486, "au": 120, "bl": 5213, "extreme": 1989, "gewisser": 7199, "System": 1441, "europäische": 1707, "te": 119, "Dennoch": 4636, "basic": 4309, "Bem": 2022, "Unternehmer": 6041, "Mange": 5194, "lückwün": 3585, "citizen": 6903, "December": 5110, "bir": 6460, "Beihilfe": 4982, "geltenden": 6232, "Alsthom": 6204, "aud": 1688, "bestimmungen": 7879, "assure": 3326, "Umweltkatastrophe": 6399, "Does": 7060, "betra": 3482, "serious": 2004, "weniger": 2910, "BSE": 4764, "pendent": 2705, "c": 55, "Antwort": 2424, "Blick": 5171, "victims": 4735, "sequ": 2145, "lei": 4859, "vorstellen": 4903, "favoured": 7977, "Währ": 3093, "Küsten": 5642, "INA": 6429, "ferenz": 2321, "identify": 6679, "border": 4800, "wendet": 3735, "sag": 6712, "Berichterstatters": 7950, "Besch": 1387, "Zeit": 785, "wobei": 6766, "ic": 146, "inge": 2856, "Allerdings": 4724, "icher": 5288, "wesentlichen": 4705, "investig": 3587, "ber": 177, "mehr": 687, "zuständig": 4870, "super": 2555, "Konflikt": 4965, "law": 960, "relations": 4589, "örper": 4551, "stead": 4906, "cultural": 5050, "vö": 2359, "forms": 7727, "scope": 6381, "without": 1771, "Ber": 324, "sicherheit": 1585, "nachhalt": 6761, "respond": 5459, "judge": 5581, "sha": 2356, "entr": 731, "Insofern": 6678, "enz": 923, "perat": 5983, "leit": 2214, "lier": 4813, "Mitteln": 5501, "wuß": 3144, "überall": 7703, "asible": 7520, "BI": 4763, "alte": 5838, "ürlich": 1456, "etz": 577, "applic": 1951, "Hän": 5712, "Uhr": 2729, "Einrichtung": 4091, "vis": 1040, "bedarf": 3160, "sust": 4830, "interinstitutionellen": 6770, "gelten": 2912, "Dank": 2129, "stor": 2038, "sowohl": 3335, "alles": 2665, "comments": 3532, "ausführlich": 7117, "handlung": 4008, "hnten": 6943, "ausschuß": 3264, "uniform": 5065, "trotzdem": 6263, "certainly": 2121, "citizens": 1748, "entschlossen": 7153, "besseren": 6100, "govern": 1253, "Invest": 7668, "Ch": 4766, "perfect": 5628, "neuen": 2124, "eigenen": 4665, "Fortschritte": 4094, "sichtlich": 1778, "bon": 6458, "decentral": 4976, "Änderung": 3551, "nor": 2085, "Juni": 5187, "arge": 1864, "W": 47, "refuge": 4297, "soli": 7596, "bekannt": 3162, "Fach": 7276, "abgesch": 6623, "Schwä": 6726, "General": 1636, "ute": 543, "Wa": 2624, "losen": 5382, "gesamt": 4900, "symbol": 7031, "natural": 3068, "teilung": 2483, "iled": 2928, "Anerken": 5966, "ia": 1721, "vest": 7425, "Staaten": 2582, "unable": 4847, "Daher": 3830, "Elles": 4775, "edy": 7553, "briefly": 6274, "suggests": 6247, "drawn": 4022, "jede": 4261, "Finanzkontrolle": 2593, "ausnahme": 7673, "gehoben": 7532, "deckt": 6824, "zung": 2278, "event": 2689, "dest": 4140, "43": 4757, "verantwortlich": 4701, "unterschiedliche": 7085, "mat": 6498, "courts": 5467, "ltigen": 4561, "Dis": 3283, "Beihilfen": 984, "setting": 6116, "jem": 5764, "erous": 7454, "dis": 431, "anxious": 7482, "ban": 1607, "gegenüber": 1945, "olle": 554, "mil": 7392, "anges": 1196, "wendung": 1410, "millen": 5776, "würd": 4611, "Thema": 1658, "floor": 4079, "Kodex": 6864, "ie": 98, "fear": 3964, "gested": 5366, "Balkan": 5641, "nur": 582, "leiden": 5858, "individ": 2772, "Beruf": 5393, "Regierungs": 3208, "Zweifel": 4064, "jetzt": 1390, "beit": 429, "Competition": 4096, "cht": 368, "chsten": 7471, "Strukturen": 6897, "functions": 6942, "beob": 7512, "einheit": 2761, "kultur": 7388, "ues": 1097, "Umsetzung": 1632, "Nr": 1898, "nive": 6504, "ces": 727, "programmes": 1747, "eingeschrän": 4391, "emed": 7601, "Betrugsbekämpfung": 7001, "fact": 823, "wert": 3341, "Interesse": 4016, "Vorschriften": 2577, "vernün": 4990, "alternative": 7505, "Ent": 467, "Vertrags": 3590, "26": 7241, "unds": 855, "üh": 5802, "Sou": 7317, "werte": 5913, "aller": 1268, "Gro": 1274, "hund": 7373, "immed": 4936, "ports": 5364, "then": 953, "cargo": 7946, "stütz": 915, "making": 1991, "aufzu": 4518, "ition": 384, "ifik": 4539, "geschieht": 6069, "proposing": 5441, "closed": 3599, "ry": 937, "cing": 2845, "vent": 1135, "itäten": 3098, "ein": 116, "monitoring": 3254, "infra": 6548, "esse": 3665, "industrie": 3228, "brauchen": 1472, "prinzip": 6012, "finden": 1996, "zeichne": 4638, "Deut": 4601, "Arbeitsplätze": 4361, "idents": 3947, "Eigen": 5175, "Raum": 2190, "Ziel": 1416, "trol": 545, "einer": 331, "mainly": 6924, "simply": 4099, "geben": 732, "Tamp": 1801, "eten": 6471, "uner": 5821, "Raumes": 6957, "zeugen": 5976, "timber": 4956, "Anliegen": 7696, "ert": 1212, "ihe": 4149, "ness": 2640, "Schlüssel": 5399, "interest": 1589, "ängst": 7700, "kut": 3133, "international": 2056, "tun": 1032, "städt": 7183, "caused": 5088, "solidar": 2798, "Ren": 5199, "Bis": 3841, "territ": 4510, "never": 4514, "Ad": 5690, "cts": 3699, "rael": 907, "200": 1897, "social": 1180, "gangen": 1144, "-,": 6400, "stand": 716, "front": 4576, "St": 328, "amendment": 3072, "sitzen": 6052, "once": 2755, "erhö": 4181, "Nielson": 5156, "big": 5214, "wollte": 7776, "newspaper": 7850, "fat": 6475, "Dialog": 3618, "vorhandenen": 5627, "Schuld": 7725, "Uran": 5579, "Schul": 3724, "Staat": 4002, "förderung": 5539, "aded": 7344, "decision": 1952, "ischere": 4216, "einig": 6593, "massive": 6296, "bahn": 5218, "Here": 6423, "Einsatz": 3737, "Aspekte": 5035, "produced": 6916, "ned": 6503, "Betroffenen": 7196, "16": 7239, "verbess": 3023, "leistungen": 7097, "Agre": 5692, "Sache": 2495, "fine": 6746, "Gemeinschafts": 2320, "lichen": 410, "entered": 6583, "appointment": 7119, "distort": 5570, "lastet": 6075, "rang": 3305, "beantwortet": 7020, "50": 3107, "Kommissar": 794, "nie": 2453, "movement": 7003, "Per": 4416, "immigr": 3522, "tete": 5870, "betr": 1426, "limit": 4030, "FR": 3443, "fordert": 2406, "sprache": 1599, "utzen": 3226, "ls": 5241, "Mehr": 3115, "stability": 4851, "prochen": 1765, "Erfahr": 4253, "Tages": 1746, "hoben": 5433, "sie": 435, "Verz": 4893, "vergen": 7585, "orgnis": 5285, "Deleg": 7861, "line": 1998, "rom": 534, "Socialists": 7015, "Palästinens": 4993, "Aktiv": 5695, "Richt": 1207, "Minder": 7910, "ißt": 2799, "eindeutig": 2604, "emer": 4511, "bedau": 4356, "Priorität": 4692, "unseres": 4980, "glo": 2634, "groups": 2820, "hr": 165, "unterschied": 3972, "provo": 7608, "disc": 1002, "run": 5784, "European": 305, "haften": 5915, "Rechtssicherheit": 4009, "iviert": 7715, "Wes": 6451, "lich": 161, "dou": 2134, "minutes": 6822, "Thurs": 5951, "fang": 2081, "return": 3772, "Cu": 7268, "brought": 5672, "dro": 5752, "institut": 1468, "geteilt": 7528, "Off": 2435, "field": 2983, "pro": 175, "development": 1291, "Anfragen": 4239, "liche": 509, "äu": 4456, "gesprochen": 3711, "due": 2980, "fin": 385, "fort": 4497, "discussed": 4616, "Kohä": 4013, "uable": 6523, "Opfer": 7147, "ital": 1450, "Plan": 5036, "rechtlichen": 6102, "ty": 1071, "urge": 4205, "beschrän": 3066, "obwohl": 6756, "Konsequenz": 6799, "activ": 3379, "Infrastruktur": 7228, "pes": 7401, "AIDS": 7208, "Punkt": 1260, "fter": 1486, "verfahren": 2766, "ün": 546, "Office": 2829, "esen": 2088, "Stat": 4546, "pflicht": 3548, "each": 2346, "0078": 5993, "sible": 965, "Beihil": 872, "ichtet": 4190, "ok": 803, "procedure": 3248, "industry": 1716, "Gründen": 7041, "Schweden": 7726, "maßnahmen": 2671, "ernste": 6713, "ining": 1575, "admin": 1772, "Food": 7141, "Gedächtnis": 7236, "seekers": 6090, "DS": 6412, "clearly": 1886, "treffen": 3213, "Beamte": 4672, "particularly": 2119, "Thirdly": 5148, "eig": 2519, "Laan": 7146, "Pra": 4417, "Qu": 1174, "Möglichkeit": 1677, "ist": 168, "geb": 748, "erwähnt": 4371, "vertrag": 5889, "Kolleginnen": 2068, "Haushalts": 1674, "Institutionen": 2329, "betrachtet": 7140, "critic": 3794, "circumstances": 3603, "assess": 3739, "gese": 1249, "Verein": 2385, "altet": 4849, "diejen": 5316, "whole": 2581, "next": 1655, "ELDR": 7169, "ange": 515, "acts": 7829, "drast": 6108, "Of": 4415, "vorschläge": 6906, "mant": 7393, "gefähr": 3016, "obligator": 7024, "scale": 7921, "warum": 5990, "Span": 7072, "gespräche": 7675, "Code": 6791, "classification": 4072, "halten": 873, "zü": 2360, "einzur": 5867, "strument": 1546, "ersch": 6539, "Schluß": 3041, "erne": 3149, "Eben": 1517, "durch": 572, "technology": 6398, "heiten": 4257, "zusam": 2546, "Überprü": 6850, "agreements": 3777, "mater": 7395, "steuer": 3957, "gesichts": 5939, "imag": 7560, "Jahren": 1552, "reven": 7498, "negoti": 2262, "Brit": 3282, "zahlreiche": 5034, "amongst": 7064, "gehört": 3247, "bereiten": 6125, "Ange": 2105, "kauf": 6490, "ar": 107, "Socialist": 7014, "cracy": 5750, "onstr": 3153, "insbesondere": 1841, "v": 74, "seems": 3091, "very": 462, "1998": 1997, "adop": 1315, "hon": 2199, "vier": 2528, "Aktionen": 5694, "ragt": 6639, "Verfügung": 3827, "ang": 601, "gruppen": 5098, "Prof": 6737, "personal": 5060, "Vielen": 2731, "Bezug": 5944, "Well": 5949, "democr": 3355, "abinet": 7583, "thre": 5814, "ents": 1820, "EU": 542, "kun": 2030, "attitu": 5466, "zugr": 5883, "netz": 7602, "cen": 3637, "F": 30, "prior": 2014, "unterstütze": 6130, "konkret": 7787, "bestimmte": 3815, "propos": 634, "xhaven": 7435, "Republic": 7660, "De": 836, "Terr": 5732, "general": 2289, "folgt": 2921, "schaff": 4914, "lüsse": 4641, "bel": 2760, "itten": 5827, "tot": 3678, "unabhängig": 7019, "i": 61, "la": 213, "umwelt": 7626, "orte": 1179, "es": 93, "ies": 148, "speech": 4549, "Holz": 3623, "bestätigt": 7099, "From": 5708, "ihm": 2676, "akzeptabel": 5166, "lic": 484, "kontrolle": 1705, "inne": 3151, "su": 231, "KMU": 5721, "official": 2169, "Malta": 6258, "affe": 2441, "hren": 420, "igungs": 3169, "ulation": 1921, "governments": 3073, "stellungs": 3996, "ausch": 4485, "Derzeit": 6803, "Lad": 7299, "uranium": 5649, "controll": 5911, "allowed": 6975, "itution": 2650, "modern": 1933, "ishing": 3981, "ese": 424, "katastrophen": 5080, "nes": 4444, "responsibilities": 6838, "damage": 3383, "derzeitigen": 4349, "sensit": 4224, "Region": 2399, "claim": 4748, "schied": 2764, "ruch": 7409, "räsident": 381, "ihr": 952, "negative": 5652, "Q": 41, "eth": 2737, "Plenum": 5126, "Aust": 4401, "Dim": 7271, "erlegt": 7463, "rost": 5293, "sort": 3653, "Einbezie": 6020, "Regierungskonferenz": 3604, "sinki": 6354, "Are": 6403, "Spra": 6445, "dessen": 2774, "einheitliche": 5067, "auseinander": 5937, "ible": 2235, "Unterschied": 6800, "siz": 7415, "vorschlag": 6140, "ine": 1226, "Dem": 2614, "dakis": 5899, "pack": 3986, "ind": 225, "diejenigen": 6358, "Disziplinarverfahren": 7165, "verwalt": 6632, "opinion": 1847, "schen": 999, "vig": 5797, "states": 3909, "iate": 4809, "send": 7644, "Verantwortlichkeit": 6875, "ity": 276, "around": 5845, "hands": 4298, "gemeinschaft": 2481, "posit": 1200, "20": 2507, "wid": 5875, "quickly": 3600, "stellt": 2167, "Zustimmung": 4661, "equality": 4143, "Intergovernmental": 4015, "anderem": 5446, "schnell": 3255, "beraten": 5345, "länger": 5591, "advis": 5380, "tims": 4566, "ched": 5269, "ck": 258, "lichkeit": 2045, "path": 3209, "Rules": 4792, "in": 88, "Gebie": 1466, "gend": 2044, "sinc": 7414, "attet": 5825, "adox": 5969, "votes": 4559, "comm": 487, "schikistan": 7566, "cess": 530, "läss": 3974, "begin": 3767, "January": 5598, "Grunds": 2917, "Übereinkommen": 5125, "N": 38, "nuclear": 4364, "days": 4001, "ja": 1443, "Immigr": 7908, "situation": 1146, "just": 587, "already": 1137, "lies": 4157, "thor": 742, "Betr": 2317, "ssel": 2994, "Austausch": 7104, "sehr": 633, "hol": 1489, "accordance": 4071, "Total": 6181, "look": 1702, "gesagt": 2387, "äß": 1493, "own": 1117, "ac": 376, "geste": 4899, "paragraph": 4594, "nitt": 7399, "Berichten": 6743, "monopol": 3541, "shipowners": 7230, "ideolog": 6785, "Untersuchungen": 5616, "anen": 6556, "Gegenteil": 6780, "differences": 4743, "okrat": 2310, "Voraussetzung": 4711, "basis": 2175, "aber": 544, "darstellt": 5413, "funds": 2632, "Sachverständigen": 7058, "ich": 102, "figures": 5645, "Menge": 7909, "concludes": 7056, "forder": 779, "24": 4753, "Doch": 3109, "stelle": 5964, "step": 2900, "beispiel": 2863, "combat": 5374, "et": 198, "requires": 4393, "conven": 5346, "pos": 333, "befür": 3673, "fug": 3643, "beschließen": 7896, "War": 3293, "Herr": 292, "compulsor": 5480, "therefore": 714, "redu": 3010, "funktioniert": 4674, "Änderungen": 5013, "ian": 2275, "eingere": 7538, "hor": 5759, "idar": 1764, "emergency": 5651, "allerdings": 2254, "Ü": 81, "tät": 3887, "not": 204, "hinfällig": 7792, "Daten": 5174, "Maße": 5472, "läßt": 3530, "object": 1739, "Element": 5706, "Bed": 1794, "discrimination": 5150, "gebra": 6832, "ext": 4901, "specific": 1789, "veröffent": 6635, "Hinblick": 3775, "ow": 400, "betre": 2794, "interpre": 3529, "controls": 4608, "wettbewerbs": 4370, "derartige": 4663, "drei": 2735, "express": 1660, "beginning": 4314, "der": 106, "vital": 6526, "view": 1069, "roug": 1496, "j": 62, "National": 4127, "came": 4803, "ised": 991, "included": 4621, "schließ": 791, "wea": 5320, "Land": 1561, "ward": 1775, "Personal": 3798, "changes": 3473, "hmen": 3867, "increased": 3401, "Währung": 5597, "plan": 1839, "inet": 7465, "sor": 1281, "Sinne": 3634, "Kommissionsmitglied": 3806, "verbunden": 7050, "service": 4322, "represent": 1863, "leider": 3325, "strafrechtlichen": 7203, "relev": 4372, "Jackson": 7822, "ain": 4424, "rat": 1240, "kor": 5767, "33": 4754, "oder": 846, "nochmals": 4270, "treter": 3538, "knowledge": 6396, "hoffen": 4319, "Monate": 4988, "verbessert": 6243, "binden": 6881, "mental": 1459, "direction": 3387, "course": 1321, "Einricht": 3372, "wärt": 3272, "home": 3868, "schlagen": 7563, "wie": 306, "rights": 3063, "Diskussions": 6980, "abge": 3691, "ief": 1977, "orität": 7493, "certain": 1220, "hit": 6478, "Es": 496, "highlighted": 7057, "import": 652, "attem": 5826, "February": 6279, "mit": 230, "institution": 3539, "ater": 867, "erz": 5265, "Presse": 7747, "Pun": 2188, "Umständen": 6316, "7": 19, "großer": 6037, "ves": 1134, "reached": 5572, "urgent": 7548, "Dienste": 5063, "mal": 1016, "uring": 1729, "Bemerk": 4651, "leiten": 4346, "itz": 6566, "Aspekt": 3576, "wann": 7429, "tens": 1539, "First": 1856, "deploy": 7113, "Ky": 7289, "setzen": 1169, "Unsere": 4682, "Regierungen": 3983, "ive": 254, "hours": 6483, "diplom": 7178, "Tage": 7326, "Human": 6427, "Kommission": 253, "plant": 4280, "denke": 2762, "läß": 6772, "angen": 1371, "fried": 6043, "unab": 5822, "hörde": 1186, "255": 6180, "bevor": 5295, "Seixas": 6395, "Drit": 3442, "preventing": 6967, "ct": 170, "cr": 662, "candidate": 7177, "relevant": 5140, "isation": 1085, "plans": 4282, "kontrollieren": 4659, "Fest": 3444, "überzeugt": 6392, "ending": 3181, "Ja": 661, "criminal": 2421, "danken": 1950, "EQUAL": 4396, "vers": 2875, "overcome": 7834, "gether": 3165, "recommendations": 4085, "agree": 2311, "Gleichstellung": 5005, "payments": 6927, "moment": 2746, "stra": 3159, "Verantwort": 1167, "ster": 1649, "Prüf": 6260, "hesion": 2952, "zustellen": 3332, "Grem": 5183, "ential": 1306, "confidence": 2491, "disaster": 1843, "exclus": 5588, "gemein": 1338, "stan": 1534, "conclusions": 4358, "deadline": 7130, "ternwirtschaft": 7983, "falsch": 5620, "Griechenland": 7193, "geführt": 1618, "Institution": 6937, "ienz": 3967, "erfordern": 7461, "82": 3615, "br": 457, "iveness": 3388, "eher": 4434, "involved": 4047, "clear": 674, "As": 761, "[EOS]": 2, "tert": 3928, "immigration": 6266, "Whether": 7338, "Gama": 5710, "doing": 3358, "stande": 7959, "Preis": 6327, "accounts": 5495, "bewer": 521, "versichern": 4208, "erör": 4840, "Klim": 5188, "haben": 358, "agencies": 6892, "will": 247, "transparency": 1844, "arante": 2370, "tro": 323, "op": 242, "ship": 1140, "ifizierungs": 3575, "Pal": 1173, "Unterlagen": 6040, "Sachverständiger": 5100, "bureaucracy": 6322, "Erklär": 2162, "Zust": 2343, "policies": 3051, "ver": 150, "Wh": 1125, "grenz": 6693, "pledges": 6752, "Wales": 3826, "lot": 4912, "init": 5809, "Portugal": 3244, "depart": 4866, "verlassen": 7587, "suffered": 5615, "Kür": 7291, "increasing": 2936, "Weiß": 1698, "acceptable": 2699, "Experten": 7087, "Betrie": 4308, "oh": 1266, "Wunsch": 5206, "ism": 1397, "Like": 5094, "Grosset": 7926, "developments": 6861, "hen": 294, "Frank": 2788, "Stär": 5396, "sourcen": 4693, "arbeitet": 2800, "llar": 7550, "ilater": 5904, "behalf": 3321, "überaus": 6709, "io": 1264, "anted": 3313, "woh": 6765, "order": 1062, "hic": 6480, "rift": 4019, "mist": 5245, "technische": 6173, "Fonds": 6418, "thilfe": 7472, "tom": 3327, "implementing": 3759, "päische": 746, "acquis": 7751, "Structural": 2588, "Finanz": 1341, "occur": 4318, "resul": 4215, "aten": 972, "ank": 481, "oug": 857, "ungsbefug": 6721, "Umstruktur": 6806, "Ausmaß": 6741, "trä": 1000, "jobs": 3417, "Woh": 7337, "Lank": 7300, "comply": 6088, "hohe": 6794, "Wissenschaft": 6378, "ried": 2849, "Akt": 4400, "aufgenommen": 3938, "unterzeichnet": 6759, "5": 17, "material": 3139, "trächt": 2806, "gebung": 4285, "famil": 7149, "planned": 5640, "unity": 954, "hörden": 2243, "fe": 316, "letter": 6990, "erst": 566, "agen": 1345, "Ä": 79, "treme": 1884, "Strukturfonds": 2417, "sympath": 4690, "Lama": 4122, "akzeptieren": 4066, "Hin": 1366, "derung": 1197, "ungs": 321, "airs": 2179, "witness": 6383, "Instrument": 3508, "atever": 7654, "eh": 2195, "anderen": 1838, "Natur": 2702, "legitim": 3728, "prevent": 2303, "reference": 4007, "Zur": 5741, "finanz": 1738, "Kop": 4779, "Con": 1294, "opportunities": 4058, "kommt": 1384, "Lebens": 1237, "Beschlüsse": 6895, "rules": 1492, "Monti": 2807, "Authority": 7231, "bilden": 6930, "system": 737, "viron": 1573, "French": 4550, "benöt": 4237, "Zweck": 6989, "improved": 3920, "fest": 1154, "adopted": 1788, "inf": 6546, "Abstimm": 1777, "resource": 6931, "nah": 616, "Mit": 354, "Frist": 6757, "V": 46, "umfassend": 6973, "Zus": 824, "meth": 6667, "vorab": 5953, "table": 2357, "ged": 2215, "gut": 1368, "rem": 1425, "pot": 3706, "Sü": 4420, "anti": 4536, "Force": 6844, "ann": 304, "itutionen": 2316, "mut": 2846, "App": 7260, "pa": 563, "fety": 1057, "results": 4737, "sofort": 7033, "transa": 4519, "entsprechen": 1978, "degree": 5648, "Det": 4771, "determin": 6335, "address": 3236, "based": 3392, "obtain": 5414, "schein": 1732, "ving": 1060, "number": 1641, "ed": 130, "interesting": 6142, "or": 99, "believe": 1188, "Wettbewerbsbeschrän": 7904, "attention": 2487, "Kern": 3624, "thus": 5271, "oten": 6506, "categ": 6465, "continu": 6894, "sink": 5254, "qual": 1332, "Lösung": 5613, "internen": 7779, "ple": 393, "Programm": 2589, "tung": 2136, "possibility": 6727, "related": 4590, "bit": 2627, "ree": 1819, "life": 2888, "Transit": 7900, "uns": 307, "are": 193, "only": 711, "quite": 1662, "Ps": 7309, "schutz": 2874, "Ausnahme": 6739, "ours": 3712, "repr": 7494, "wen": 433, "Ket": 7293, "öffentliche": 6172, "access": 2783, "arif": 7511, "Leitlinien": 1893, "Zwar": 7342, "Monat": 6867, "aum": 1128, "wand": 3143, "itim": 3317, "Regional": 3373, "set": 1267, "supports": 6849, "entsch": 5300, "Ebenso": 3242, "uation": 795, "government": 4317, "urban": 5318, "Jetzt": 3287, "Landes": 5516, "second": 1983, "Zunächst": 2626, "gerechte": 6898, "apprec": 5974, "beglückwünschen": 4723, "nennen": 4910, "Fall": 1603, "project": 1919, "abgere": 5330, "Mor": 7302, "stands": 7833, "imum": 3685, "zuarbeiten": 7569, "verdient": 6637, "geleg": 1535, "took": 6589, "treatment": 5603, "In": 234, "reforming": 7838, "expected": 7687, "request": 2758, "Unfall": 7651, "unless": 6562, "information": 1815, "cement": 3640, "erdem": 2854, "via": 7426, "ance": 606, "blic": 6461, "gerungen": 4554, "jur": 4442, "olitik": 749, "emar": 3339, "Greece": 5633, "ressourcen": 7619, "trad": 4264, "consum": 3052, "cond": 808, "Vet": 7332, "vorliegenden": 3418, "äst": 2362, "lay": 3342, "gestärkt": 6853, "nationaler": 7799, "aufnehmen": 5918, "ion": 104, "überein": 5971, "Our": 2620, "Palestine": 6979, "adequ": 3410, "gricult": 4236, "Nu": 6435, "immen": 1691, "lter": 6496, "acqu": 5994, "zerst": 4836, "ergibt": 7455, "finanziert": 7978, "rid": 4826, "gap": 7370, "ordnung": 963, "discussion": 2932, "comprom": 6696, "Integr": 6677, "autom": 5310, "weit": 461, "Is": 800, "pol": 332, "me": 220, "Abgeordnete": 2489, "Sektoren": 6819, "sco": 5789, "Fragestell": 7781, "Grunde": 4970, "Politiken": 5527, "resolutions": 4025, "Committee": 1592, "networks": 7989, "leistung": 7096, "November": 4985, "nimmt": 2748, "entwi": 3323, "gebaut": 4591, "stellen": 977, "item": 3007, "ick": 2549, "ments": 619, "disasters": 2813, "ge": 113, "gruppe": 7051, "ilities": 5903, "ilar": 5343, "imension": 2719, "all": 206, ":": 22, "eit": 513, "Bere": 814, "zuständigen": 6311, "Tür": 3124, "zesses": 7443, "urgency": 4492, "wer": 181, "qualifiz": 7934, "Internet": 6869, "hold": 4630, "spruch": 3419, "unser": 822, "Zuständ": 5049, "Community": 1147, "zum": 588, "raums": 7180, "regions": 1269, "Kur": 7290, "Damit": 2718, "series": 6058, "Strateg": 3753, "Niel": 4784, "bestände": 7880, "beispielsweise": 3271, "ption": 3982, "überwach": 5385, "fangen": 7367, "Finally": 2168, "schon": 1373, "Stahlbeihil": 5557, "darüber": 1931, "oreboard": 3075, "Maßnahmen": 1322, "pected": 5888, "Alle": 4403, "discharge": 2505, "potential": 5106, "Gesamt": 7939, "avo": 5209, "Augen": 4565, "glich": 625, "ograph": 3542, "expectations": 5577, "heits": 5328, "racht": 2471, "Vereinigten": 5564, "successful": 7059, "pet": 541, "spre": 1036, "No": 986, "seven": 6612, "etzt": 720, "ahe": 4136, "allows": 6974, "rise": 5787, "atz": 924, "gesch": 784, "gehe": 7522, "wur": 507, "outh": 3923, "commit": 1880, "Unterschiede": 3537, "Angelegenheit": 2501, "soziale": 3404, "spflicht": 5353, "urellen": 7777, "Bom": 7263, "Umfang": 4579, "treten": 1708, "competition": 660, "jedes": 4593, "fahrt": 7952, "clarity": 7127, "expressed": 3246, "sinnvoll": 5132, "should": 408, "price": 6763, "Port": 1565, "Schließlich": 3601, "rightly": 5478, "billion": 7349, "XXVIII": 6454, "satz": 1302, "Ergebnis": 5061, "kon": 488, "wir": 169, "äm": 1159, "läufig": 7783, "initiatives": 3559, "b": 54, "OL": 1857, "steel": 2672, "gel": 528, "befindet": 7515, "kurzfrist": 6955, "ierte": 2664, "Gerichte": 6121, "roffen": 5846, "bu": 1803, "ativ": 3476, "Pflicht": 4790, "unterziehen": 7765, "Subvent": 4653, "idet": 6783, "udget": 1593, "denk": 7547, "monisierung": 4584, "ri": 1111, "Haupt": 4715, "idarität": 3407, "utter": 3931, "wortet": 4545, "wollen": 1355, "exem": 4528, "hoffe": 1639, "action": 1208, "immung": 4548, "Then": 5373, "institutions": 1846, "ace": 1326, "about": 664, "selben": 7791, "Zw": 7341, "ler": 2276, "devast": 6600, "lan": 4156, "Behrendt": 4398, "explan": 4529, "scrutin": 5146, "vorge": 4532, "go": 398, "Jahr": 1054, "Rü": 6440, "zugs": 7898, "ublic": 881, "dän": 5224, "ai": 4423, "orand": 7492, "sollte": 1201, "over": 736, "bedingt": 3088, "detailed": 5046, "found": 5448, "third": 3003, "San": 4130, "soweit": 6640, "ganzen": 7883, "lungen": 1907, "anten": 3902, "schiedet": 6950, "Cox": 6032, "success": 3592, "Drei": 7272, "exce": 3032, "grateful": 6694, "verwirk": 6631, "remit": 6572, "mp": 6497, "rapp": 1454, "val": 4172, "Da": 1122, "genehmigt": 7186, "igte": 3488, "Kartell": 4673, "Konzep": 6798, "spent": 5352, "later": 4814, "tegr": 2373, "Fre": 3848, "allel": 5431, "ou": 140, "Exper": 4061, "lawyers": 6859, "sozialen": 2493, "ould": 223, "lle": 1059, "aterial": 2407, "Bal": 4404, "Flücht": 4103, "verfügen": 3262, "dung": 2629, "regul": 1184, "bitten": 4359, "iness": 1760, "can": 351, "untersucht": 7767, "rele": 3008, "einigen": 3485, "obvious": 2909, "Verwendung": 4894, "Ih": 893, "aut": 4204, "Wieder": 3389, "sbekämpfung": 5095, "änd": 690, "Bil": 6407, "regen": 5833, "Z": 50, "such": 750, "gem": 627, "less": 1082, "erinnern": 5120, "staff": 2782, "mission": 4352, "man": 367, "base": 7907, "reserv": 7620, "Beteil": 4526, "eli": 4433, "than": 1244, "usion": 7625, "int": 549, "acc": 1627, "tellt": 6826, "Wettbewerb": 613, "us": 186, "arm": 7510, "str": 340, "seine": 1571, "andid": 3167, "rech": 2281, "opportunity": 3581, "bleibt": 3973, "glichkeit": 1235, "Vorab": 5996, "oben": 4821, "bestimm": 2695, "rahmen": 3927, "accidents": 6145, "esses": 6692, "äußerst": 2602, "raum": 3650, "2006": 3789, "einige": 1619, "Kolleg": 1850, "Her": 2616, "sad": 6515, "lung": 896, "Fus": 6416, "concept": 7615, "what": 641, "nation": 5248, "außerord": 3572, "Arab": 3971, "Hil": 5711, "follow": 1744, "advanta": 5676, "relation": 2484, "berg": 7612, "vorange": 7688, "Arbeitnehmer": 6847, "Sorge": 4362, "few": 1543, "Jur": 5715, "troll": 1544, "pain": 7800, "angenommen": 3402, "auszu": 3710, "permanent": 5164, "head": 5886, "oppe": 3713, "Struktur": 1412, "payment": 6926, "versich": 6629, "dien": 2630, "whether": 1861, "unzu": 4846, "halte": 1876, "Klarheit": 7172, "fehl": 1992, "ience": 2781, "Mainstreaming": 5473, "Ger": 1364, "größ": 2601, "Rass": 6441, "liability": 2473, "sitz": 4278, "Regelungen": 3396, "ilit": 4211, "four": 2739, "Legal": 7069, "Absatz": 3200, "Beschäft": 2123, "concern": 701, "after": 2027, "verstär": 3694, "tack": 4897, "fordere": 5458, "final": 4260, "Aktions": 5142, "ked": 4443, "Verständnis": 5147, "Stunde": 5982, "control": 1022, "langfristig": 6222, "liho": 7646, "vern": 1051, "cannot": 1067, "ors": 1113, "besonder": 912, "June": 5670, "vertreten": 3024, "gnis": 4807, "cial": 409, "gestell": 1312, "Verurs": 6672, "B5": 5170, "gebühren": 7836, "Fern": 4776, "erwarte": 6972, "lder": 6495, "einträcht": 5868, "impression": 5104, "llig": 1980, "aler": 5289, "Counc": 635, "Unter": 584, "near": 4513, "hn": 1971, "Tampere": 1851, "Inde": 2049, "demokratischen": 5602, "recogn": 2498, "gibt": 864, "pend": 1646, "unsch": 3904, "ile": 905, "recent": 3564, "trib": 1769, "criticism": 6281, "fellow": 7718, "colleag": 3263, "flo": 2982, "dsman": 4943, "Seite": 3409, "frost": 7368, "kodex": 3791, "Dimension": 4405, "gliche": 4146, "ausgehen": 6680, "eine": 201, "ernen": 7453, "erheit": 768, "ffic": 1311, "Gremium": 6347, "term": 2661, "werk": 3498, "tsk": 3720, "zah": 7438, "dieser": 570, "Report": 3505, "Berichts": 2568, "ouse": 1351, "tomorrow": 2612, "aufgefordert": 6960, "dead": 4865, "Überprüfung": 7233, "uar": 3657, "dür": 1968, "long": 1391, "stellte": 6835, "bat": 1754, "gress": 2521, "einzige": 6992, "ä": 83, "civil": 4431, "authority": 1360, "thought": 3474, "zeit": 920, "xim": 5259, "beigetragen": 7184, "anträge": 2458, "abled": 7736, "gone": 5232, "transpos": 7831, "indeed": 2816, "depend": 5313, "For": 815, "monopolies": 3834, "Strafverfolg": 7122, "acce": 5409, "hört": 5436, "blich": 3455, "greatest": 6908, "ihres": 7881, "führt": 1170, "Nach": 1124, "chen": 455, "proble": 7607, "tut": 5794, "leh": 2865, "assoc": 5859, "wenigen": 4262, "ctors": 3025, "mot": 4263, "Betrügereien": 6397, "amount": 5608, "restric": 7011, "ehr": 1418, "ient": 802, "external": 6314, "ig": 134, "offer": 3998, "verstehen": 3693, "Wog": 2342, "vell": 7574, "ress": 1214, "sozusagen": 7598, "ourselves": 3179, "regionale": 4604, "det": 918, "Verbot": 5934, "vorgelegt": 3511, "promote": 6650, "Jr": 7287, "raises": 7595, "mma": 6501, "em": 157, "nothing": 2876, "Vertrauen": 2713, "nf": 3303, "Some": 3856, "bil": 1805, "representative": 6935, "sichern": 3036, "liefert": 5943, "kret": 4810, "passieren": 6143, "bre": 1804, "bor": 7346, "ire": 426, "taint": 2776, "-": 9, "eingeführt": 6595, "Kommiss": 772, "Abschluß": 4939, "aw": 2271, "ßen": 1328, "Ausbil": 3729, "angesprochen": 3071, "deta": 2284, "len": 6494, "drig": 7837, "eral": 1083, "paying": 6925, "Aufbau": 4000, "Further": 4117, "Treaties": 7994, "sixth": 5586, "yond": 4834, "ti": 866, "ented": 5855, "42": 4756, "benef": 3513, "orous": 4469, "wirtschaftliche": 5479, "produ": 1657, "Directorate": 5113, "sk": 3651, "gefährlicher": 5594, "gewün": 7969, "17": 3439, "polit": 830, "mittel": 809, "erken": 2210, "freu": 4284, "maritime": 4950, "sprü": 7640, "ordin": 1773, "hosp": 7802, "statt": 1725, "nte": 1682, "setz": 550, "worth": 3362, "zwingen": 6053, "onger": 7474, "Weg": 2295, "mitte": 7663, "When": 3125, "gre": 688, "unternehmen": 3525, "gangenen": 2931, "lus": 1906, "feren": 1442, "Resolution": 7139, "sibility": 1435, "möglichst": 5522, "Prioritäten": 6249, "portugiesische": 4677, "inning": 4017, "mer": 832, "Entschließungsentwurf": 5567, "gener": 3337, "entlichkeit": 2810, "Flüchtlinge": 6291, "solchen": 2684, "richten": 6091, "besteht": 1513, "Council": 636, "inc": 480, "Schäden": 5398, "she": 4828, "erhöht": 6297, "haltung": 6719, "gewä": 4483, "Fle": 5177, "unced": 4274, "portug": 2667, "reichen": 1469, "itt": 1616, "hour": 7377, "knowled": 6092, "sucht": 5363, "alling": 7634, "oulos": 7567, "Einigung": 6774, "gü": 4145, "Situation": 2176, "upon": 3045, "finanzielle": 6154, "traffic": 6011, "Konzept": 6797, "key": 1620, "verehr": 5890, "fahren": 1216, "scheinlich": 6923, "Donnerstag": 6371, "Ds": 4770, "losigkeit": 4311, "stimme": 4194, "nu": 2747, "reality": 4329, "outs": 5326, "Mon": 1030, "gebracht": 3217, "submitted": 4598, "flag": 2446, "Abgeordne": 964, "improv": 5323, "För": 3445, "Worten": 6237, "Modern": 4068, "foreign": 7796, "mach": 1109, "area": 1104, "ausgesprochen": 6682, "practice": 4048, "decreas": 6062, "Sit": 1276, "ey": 7361, "macht": 4018, "Next": 6436, "full": 1176, "hend": 2984, "sus": 2751, "erforder": 1759, "einem": 682, "uncer": 6793, "wichtige": 2803, "ase": 3914, "ulative": 6659, "ta": 232, "absolute": 3257, "objectives": 2943, "ierungs": 1402, "Au": 497, "spr": 2152, "ab": 145, "weiteren": 4266, "En": 1642, "proposals": 1780, "veröffentlicht": 7227, "at": 96, "nächsten": 2950, "repe": 3318, "Europes": 6954, "freuen": 6302, "fore": 519, "Arbeitsplätz": 2712, "huge": 3870, "9": 21, "suff": 3506, "urelle": 5418, "Krit": 2967, "vernommen": 7894, "antrag": 2901, "fung": 2981, "kannt": 2240, "Kennt": 3852, "moder": 7771, "derungen": 7509, "ately": 1461, "ules": 1287, "Scha": 3965, "terms": 1734, "they": 770, "stimm": 1284, "Germany": 4625, "halt": 2563, "ände": 3035, "Auswirkungen": 2675, "ref": 926, "priv": 2790, "human": 2741, "ories": 6570, "welche": 2584, "Dauer": 7274, "mar": 478, "Verfahren": 2892, "wäh": 2397, "zeigt": 4543, "Weißbuch": 1717, "commend": 2681, "abgesehen": 7580, "enough": 2139, "Von": 5734, "nehmbar": 5604, "67": 5688, "lliere": 7552, "verab": 3692, "render": 7998, "Ländern": 2512, "überdenken": 7704, "conflict": 4991, "tomor": 2539, "least": 3015, "habil": 7380, "ehmen": 3584, "dazu": 1116, "disadvanta": 7769, "Sonder": 4795, "A": 25, "Bereichen": 4605, "felt": 7717, "Umst": 4578, "versch": 3022, "fü": 360, "transp": 713, "stär": 1579, "meines": 4162, "werden": 244, "tin": 5793, "going": 2238, "cation": 4428, "Geschäftsordnung": 3825, "ps": 2033, "Dan": 3284, "merken": 5464, "forces": 4498, "Europas": 2606, "Conferen": 3235, "iß": 696, "erhe": 1976, "durchaus": 4572, "berücksicht": 2149, "ener": 4179, "oc": 1265, "supp": 2775, "entions": 4197, "PP": 3290, "ment": 210, "lehnt": 6229, "insufficient": 7467, "ieht": 5829, "Länder": 2024, "gram": 529, "Rechts": 948, "weiß": 2543, "Bevö": 5369, "abilität": 5057, "internationale": 6179, "regeln": 4343, "hal": 317, "Empfehlungen": 3819, "garant": 5014, "deliver": 7079, "erence": 2242, "rates": 7408, "guarantees": 4063, "forests": 6209, "ens": 465, "shall": 1624, "steps": 4907, "Vielleicht": 7090, "erk": 2853, "sectors": 4206, "growing": 6255, "Middle": 2842, "mis": 2351, "Tobin": 2261, "budgetary": 6949, "zwischen": 902, "%": 5, "erwarten": 3808, "response": 3381, "dürfte": 7997, "else": 6764, "Dire": 2265, "program": 758, "verse": 5332, "Interessen": 3225, "U": 45, "stattfindet": 7976, "strategic": 4627, "du": 669, "dram": 4592, "Produ": 6738, "zunehmen": 4455, "modernisation": 6166, "yst": 557, "organised": 6915, "made": 901, "vention": 3227, "differ": 2490, "tax": 1374, "his": 1058, "ru": 1392, "management": 1776, "mehrere": 6056, "reject": 4189, "Hohen": 7914, "Rück": 2438, "lüss": 7965, "Ac": 3840, "mitglie": 2101, "ijs": 7150, "Sel": 4421, "werde": 2223, "beim": 2653, "conc": 516, "lichtet": 4878, "frecht": 3992, "diskutieren": 4712, "[": 51, "gewisse": 5018, "akt": 3454, "Ihre": 2691, "lying": 5339, "Rechenschaft": 5134, "Erklärungen": 6185, "hinsichtlich": 2682, "worse": 5980, "enary": 5805, "cay": 7352, "Entschließungen": 6907, "Je": 4411, "lassungen": 7958, "Th": 251, "young": 7074, "Subsidiarität": 4384, "lose": 2389, "ilst": 6647, "Liss": 7298, "had": 1078, "Commissioner": 672, "republi": 7502, "Du": 7270, "paradox": 6837, "giving": 6353, "unc": 558, "gu": 774, "bro": 7347, "iste": 4465, "SMEs": 5202, "during": 2736, "Was": 1719, "wissen": 1224, "kaum": 3136, "üben": 5262, "ants": 3958, "ühr": 5261, "iell": 4188, "vel": 617, "bus": 1965, "fallen": 3062, "llen": 338, "concentr": 5427, "normal": 5037, "Chance": 7123, "einheitlichen": 7007, "favour": 1958, "legislation": 1324, "Portug": 1600, "demok": 7693, "wäre": 1666, "Sub": 2079, "beteil": 4477, "vollständige": 7925, "xt": 1041, "einzigen": 6991, "Roth": 4350, "hingewiesen": 4732, "rest": 4517, "betonen": 6031, "gewähren": 7112, "exerc": 3954, "regard": 1831, "Strategie": 6277, "Budgetary": 5117, "none": 4446, "Som": 7316, "ste": 267, "VIII": 5735, "ambit": 7554, "ütz": 833, "drag": 7911, "opinions": 6912, "beige": 5849, "ffiz": 2770, "Assad": 7843, "Vorgän": 6749, "ünst": 6033, "speziellen": 4722, "alled": 4571, "Schaff": 2565, "urch": 482, "fahr": 1430, "entsprech": 5301, "sätz": 4170, "kontroll": 2301, "Prodi": 3367, "ounced": 7400, "Sc": 5200, "ates": 456, "Ze": 7340, "ständig": 2488, "Nicht": 3632, "Vereinbar": 5563, "erläu": 4841, "gering": 5416, "requ": 956, "Ist": 5714, "verkehr": 7589, "Justice": 6175, "ess": 255, "uran": 4491, "Fin": 765, "Klassifizierungs": 4413, "Stärkung": 7158, "tragung": 6865, "Futtermittel": 5155, "Lös": 3451, "mäß": 2452, "Far": 5707, "ober": 6507, "redundant": 7897, "July": 6431, "coher": 7708, "integration": 6227, "sm": 2993, "which": 287, "emp": 849, "rie": 1222, "and": 126, "lü": 1645, "genannten": 4703, "refer": 2117, "TAC": 5733, "Verhandlungen": 3429, "iture": 7489, "Fragest": 5420, "Verpflicht": 4522, "away": 5211, "say": 859, "Punkten": 6189, "ctions": 2098, "intention": 3984, "before": 1727, "meisten": 4225, "Aid": 6404, "hbar": 7378, "Fä": 2837, "nerst": 4820, "extens": 5372, "ohne": 1437, "Krisen": 5040, "Inform": 4231, "ior": 4439, "darf": 1318, "Voraus": 3521, "licher": 1310, "ternative": 5537, "Wass": 3635, "Tech": 5203, "reading": 7877, "Groß": 5505, "rif": 1393, "review": 4471, "eing": 6592, "applicable": 5030, "Verpflichtung": 7116, "Arbeitsp": 2173, "Commission": 218, "Re": 228, "anwal": 3004, "istischen": 7604, "organis": 4042, "Gebietskörperschaften": 7235, "mainstreaming": 5962, "schwer": 2220, "experien": 5028, "umfang": 4218, "zeugung": 4683, "%.": 5682, "Lo": 3627, "powerful": 6961, "180": 7240, "placed": 4588, "ernst": 5386, "asked": 2927, "ills": 7808, "Ri": 7312, "ausge": 2232, "gesam": 2895, ";": 23, "Angelegenheiten": 5569, "usw": 6653, "Beit": 2154, "üro": 3147, "EL": 5701, "Economic": 4744, "framework": 2426, "assung": 3204, "Meinung": 1478, "Wort": 1964, "Regierung": 2795, "differen": 4302, "mm": 5774, "bureau": 4747, "efforts": 2425, "country": 2115, "Bedingungen": 3101, "35": 3614, "iel": 352, "rial": 6512, "Techn": 7148, "Auslegung": 7742, "hin": 504, "1": 13, "73": 7252, "Unabhängigkeit": 7082, "sphere": 7639, "Author": 6782, "ssen": 343, "speculation": 7936, "establish": 1403, "safe": 4244, "Bedeut": 1735, "örperschaften": 7120, "liograph": 7648, "prov": 639, "questions": 2244, "gan": 404, "brechen": 5025, "Hul": 1275, "harmonisation": 5617, "tain": 792, "Frage": 799, "bemü": 4476, "deplore": 7546, "beiden": 6015, "Bar": 1481, "u": 73, "gratul": 2156, "atory": 4467, "Konta": 7803, "outside": 6360, "considerably": 7855, "close": 2979, "regionalen": 3756, "Katastrop": 1798, "befassen": 5852, "established": 4324, "ausreichen": 6681, "fig": 4435, "este": 7477, "security": 1731, "Abkommen": 5415, "Bo": 2963, "turn": 3656, "High": 7283, "Koso": 2251, "signs": 6144, "why": 1695, "gemacht": 2916, "add": 1314, "sector": 3021, "approved": 3515, "dringend": 3057, "Transport": 5512, "Jun": 5186, "noch": 494, "aufbau": 5919, "notwend": 1767, "ges": 240, "einbeziehen": 5308, "animal": 7094, "approv": 3961, "rän": 1722, "omm": 131, "Inner": 7666, "reach": 2534, "müßte": 5412, "irregularities": 7187, "banon": 4331, "oned": 7473, "impa": 4868, "280": 7244, "Hand": 2510, "bt": 2028, "need": 466, "Gel": 4408, "cir": 2977, "einführen": 7537, "Entscheidung": 3250, "staaten": 685, "apply": 2809, "details": 5624, "führen": 1335, "exam": 1023, "effects": 3241, "alous": 7504, "erforderlich": 2706, "looked": 6919, "Marktes": 5010, "Wissen": 5737, "th": 90, "poor": 5355, "meiner": 1446, "imme": 3686, "Object": 5079, "Staates": 7860, "capable": 7957, "voting": 5423, "slight": 7418, "kamen": 7387, "ties": 4831, "seitens": 6922, "bildet": 6161, "ke": 173, "still": 1063, "product": 7970, "ende": 2209, "Demokratie": 6341, "124": 6127, "mere": 4816, "iger": 778, "anderes": 7825, "spezielle": 5090, "cohesion": 3721, "anchovy": 7223, "verschieden": 2660, "let": 2537, "bestehenden": 3792, "Polize": 5619, "throughout": 5536, "betrachte": 5097, "fern": 3460, "ered": 3307, "Behrend": 4233, "ierungen": 2382, "Verständ": 4521, "kämp": 7991, "1999": 658, "observed": 7053, "Grün": 3375, "ehe": 7362, "wh": 183, "daran": 2054, "Stahlindustrie": 4059, "illegal": 5344, "scientific": 4087, "hören": 4574, "ändern": 1502, "sprach": 6115, "Zusammen": 949, "An": 269, "nern": 4163, "für": 199, "Gegenstand": 6994, "sicherzustellen": 6887, "aufkommen": 7628, "gt": 562, "jud": 2742, "building": 5612, "bür": 5746, "peace": 1428, "Binnenmarkts": 7990, "Jonckheer": 3432, "prakt": 3230, "prefer": 7795, "despite": 5361, "talks": 6139, "co": 300, "Mal": 3288, "99": 283, "üssen": 7447, "ict": 2659, "stens": 2861, "wirte": 7605, "zogen": 2605, "Abbau": 7763, "mean": 3705, "scheidet": 7865, "accord": 2704, "ansit": 7810, "cult": 2345, "sug": 2293, "wirksam": 6082, "))": 7237, "zuletzt": 6620, "tra": 436, "develop": 974, "banks": 7350, "länd": 2987, "referred": 3578, "ialog": 2155, "where": 959, "rather": 2097, "lange": 3463, "others": 2919, "Anhör": 7695, "gewesen": 4484, "been": 413, "particip": 4295, "ub": 579, "sicherlich": 4316, "Thank": 2670, "cle": 3638, "vious": 1572, "di": 2133, "aust": 5309, "Ireland": 3611, "ersten": 2400, "Union": 374, "anderer": 3990, "hä": 1299, "pten": 7402, "Sar": 6443, "option": 7678, "ted": 353, "inst": 602, "bal": 1346, "Entwurf": 5424, "Nur": 3452, "slow": 7419, "welt": 1246, "kü": 7384, "asking": 5303, "Lyn": 5724, "konkreten": 3797, "Clear": 6410, "yet": 1974, "wards": 1877, "direct": 2692, "minute": 6821, "cor": 2344, "DR": 6411, "uld": 3658, "saying": 3222, "dialogue": 3612, "liegen": 1250, "acht": 1766, "entscheiden": 2536, "Durch": 1961, "zweifellos": 6111, "Zivil": 5207, "wise": 6529, "Bevölker": 5675, "dat": 6466, "See": 6059, "Strafrecht": 6934, "umgesetzt": 3500, "ard": 722, "23": 6401, "impact": 5664, "Herrn": 978, "shift": 6706, "spräsident": 2887, "druck": 2069, "examination": 6094, "än": 271, "Brussels": 5048, "vorher": 5955, "exten": 5371, "Ergebnisse": 3811, "sense": 3343, "politischen": 2924, "haft": 3700, "used": 1827, "job": 2082, "Auffassung": 4101, "totally": 5102, "ufen": 7423, "nis": 753, "weiger": 7555, "iment": 7559, "wirksame": 5475, "correctly": 6307, "überarbeitet": 7705, "Frieden": 1504, "Anzeige": 6702, "Stimmen": 5981, "arily": 3911, "Namen": 2726, "prosecutor": 6648, "lösen": 5089, "Griechen": 6047, "regular": 3963, "Rechnungshof": 5084, "st": 105, "Grenz": 3215, "expla": 4235, "trade": 7773, "al": 103, "richtig": 3757, "Organ": 3078, "Theat": 1768, "ch": 89, "Ebene": 2595, "gest": 862, "ausgezeichne": 5556, "Garantien": 7209, "capac": 4037, "ious": 704, "p": 68, "Änderungsanträgen": 6939, "Ausschusses": 2590, "Reformprozeß": 5489, "kes": 1809, "Aufmerksam": 4599, "Dies": 597, "beitragen": 3526, "parallel": 7844, "It": 391, "Diese": 1337, "wirkt": 5342, "pe": 149, "ücksicht": 1779, "Sinn": 5201, "Ihrem": 7868, "erweisen": 7457, "colleagues": 4697, "markt": 1590, "näch": 2204, "staatlichen": 1835, "ond": 3663, "means": 2384, "needed": 3698, "except": 3953, "Forderung": 2923, "broug": 5216, "gerne": 6758, "Regionalpolitik": 5091, "desire": 7662, "linie": 1548, "purely": 7405, "dist": 2516, "II": 2840, "Notwendigkeit": 3610, "geiz": 7524, "blick": 2976, "Politik": 1679, "denen": 1198, "Ere": 4774, "unklar": 6563, "wa": 1177, "transporte": 7830, "kein": 1904, "betrifft": 1676, "Schwierigkeiten": 3838, "hinaus": 2572, "Social": 2918, "having": 2885, "Eine": 1936, "schie": 2096, "änderung": 7873, "mein": 2745, "aufge": 2224, "erv": 6538, "evol": 7847, "achteil": 6657, "Schritte": 5397, "tief": 3655, "gefordert": 4201, "sweise": 2527, "abend": 7578, "Män": 5192, "Binnen": 1795, "jemand": 7179, "vember": 4871, "weiteres": 7875, "ktik": 7633, "Wer": 5205, "innerhalb": 4700, "towards": 2040, "One": 3854, "sich": 284, "pen": 1757, "begr": 1162, "inter": 451, "ifft": 1408, "bar": 816, "gegebenen": 4334, "han": 1070, "likely": 6767, "ichen": 3158, "Rechen": 4229, "ürokrat": 3822, "period": 1995, "chan": 2754, "doch": 1463, "abzu": 2547, "Angst": 7697, "climate": 5145, "nachvoll": 7770, "wün": 2205, "Americ": 6324, "care": 2194, "fördert": 5078, "zip": 1574, "bewußt": 4377, "bed": 2535, "sy": 2643, "directive": 2408, "compl": 5958, "Aff": 3616, "ready": 1120, "solid": 5440, "schaften": 1830, "signific": 3079, "bleiben": 2679, "rechnen": 6197, "atedly": 6807, "decisions": 2933, "mich": 865, "aper": 1586, "äglich": 7445, "quis": 4241, "arbeitung": 3991, "exactly": 5122, "Parlament": 430, "content": 5498, "Vergangenheit": 3837, "Verhaltens": 4709, "Scoreboard": 6350, "klarstellen": 6109, "mas": 7391, "Eig": 5703, "thom": 5815}